{
  "!": 8,
  "!!": 1098,
  "!!!": 3160,
  "!!!!": 3968,
  "!\"": 2472,
  "!)": 5820,
  "!?": 7178,
  "\"": 9,
  "\",": 2108,
  "\".": 1313,
  "\"?": 4092,
  "#": 10,
  "$": 11,
  "%": 12,
  "%.": 5577,
  "&": 13,
  "'": 14,
  "',": 5815,
  "'.": 3834,
  "'d": 702,
  "'ll": 701,
  "'m": 476,
  "'re": 547,
  "'s": 341,
  "'t": 342,
  "'ve": 615,
  "(": 15,
  ")": 16,
  "),": 1133,
  ").": 794,
  "):": 7189,
  ")?": 5857,
  "*": 17,
  "**": 1175,
  "***": 7663,
  "**.": 7052,
  "*,": 5096,
  "*.": 3339,
  "+": 18,
  ",": 19,
  ",\"": 3878,
  "-": 20,
  "--": 1255,
  "----": 2586,
  "--------": 4744,
  ".": 21,
  ".\"": 1249,
  ".)": 2399,
  ".*": 5380,
  ".**": 6709,
  ".,": 7112,
  "..": 376,
  "...": 531,
  "...\"": 6552,
  "....": 1168,
  ".....": 3838,
  "......": 7708,
  "........": 6105,
  ".âĢĿ": 5498,
  "/": 22,
  "0": 23,
  "00": 619,
  "000": 1694,
  "1": 24,
  "10": 1682,
  "100": 3509,
  "11": 3172,
  "12": 3481,
  "13": 5377,
  "14": 5068,
  "15": 3068,
  "16": 4825,
  "17": 6382,
  "18": 5668,
  "19": 6420,
  "2": 25,
  "20": 1854,
  "200": 2661,
  "22": 6663,
  "24": 7094,
  "25": 3746,
  "3": 26,
  "30": 2527,
  "300": 6342,
  "31": 3775,
  "32": 5465,
  "33": 7860,
  "35": 5901,
  "4": 27,
  "40": 3176,
  "400": 7455,
  "45": 6475,
  "5": 28,
  "50": 1653,
  "500": 4804,
  "6": 29,
  "60": 2988,
  "7": 30,
  "70": 3476,
  "75": 5845,
  "8": 31,
  "80": 2900,
  "9": 32,
  "90": 4617,
  "99": 3829,
  ":": 33,
  ":**": 6175,
  ";": 34,
  "<": 35,
  "</s>": 2,
  "</s_AGAIN>": 6,
  "<pad>": 0,
  "<pad_AGAIN>": 5,
  "<s>": 1,
  "<s_AGAIN>": 4,
  "<unk>": 3,
  "<unk_AGAIN>": 7,
  "=": 36,
  ">": 37,
  "?": 38,
  "?!": 2550,
  "?\"": 2358,
  "?)": 3946,
  "??": 1598,
  "???": 4577,
  "@": 39,
  "A": 40,
  "AA": 2230,
  "AAAA": 4565,
  "AC": 4116,
  "AD": 5250,
  "AL": 4215,
  "AM": 2982,
  "AN": 2159,
  "AP": 6108,
  "AR": 3038,
  "AS": 3159,
  "AT": 1897,
  "AY": 3596,
  "And": 7221,
  "B": 41,
  "BA": 4313,
  "C": 42,
  "CE": 7229,
  "CH": 4908,
  "CK": 2684,
  "D": 43,
  "DD": 7901,
  "DR": 4105,
  "DS": 4979,
  "Don": 5314,
  "Donald": 6854,
  "E": 44,
  "EA": 2594,
  "EC": 4777,
  "ED": 2394,
  "EE": 2647,
  "EEEE": 5915,
  "EM": 5185,
  "EN": 3041,
  "ENT": 7962,
  "EO": 6754,
  "ER": 1460,
  "ERE": 6869,
  "ES": 2291,
  "ET": 3533,
  "F": 45,
  "FA": 5541,
  "FC": 5021,
  "FF": 5732,
  "FL": 4219,
  "G": 46,
  "GA": 6689,
  "GB": 4695,
  "GE": 6803,
  "GO": 7236,
  "H": 47,
  "HA": 3887,
  "HAHA": 6294,
  "HH": 5625,
  "HT": 6842,
  "He": 7692,
  "I": 48,
  "IA": 6642,
  "IC": 4035,
  "ID": 3880,
  "IG": 4545,
  "II": 3731,
  "IL": 3617,
  "ILL": 5156,
  "IM": 5090,
  "IN": 1634,
  "ING": 2268,
  "ION": 6706,
  "IP": 4766,
  "IR": 4606,
  "IS": 2543,
  "IT": 1596,
  "IV": 5797,
  "If": 6013,
  "In": 5913,
  "It": 5108,
  "J": 49,
  "K": 50,
  "KE": 6170,
  "L": 51,
  "LC": 4036,
  "LD": 6467,
  "LE": 4651,
  "LL": 1983,
  "LLY": 4956,
  "LY": 4345,
  "M": 52,
  "MA": 5023,
  "MO": 2863,
  "N": 53,
  "NG": 6015,
  "NN": 7518,
  "No": 6291,
  "O": 54,
  "OD": 4681,
  "OL": 3328,
  "OM": 3766,
  "ON": 2154,
  "ONE": 6768,
  "OO": 2269,
  "OOOO": 5632,
  "OP": 3779,
  "OR": 2754,
  "OS": 3314,
  "OT": 1805,
  "OU": 1960,
  "OW": 3151,
  "Oh": 5974,
  "P": 55,
  "PA": 7162,
  "PC": 6390,
  "PG": 5543,
  "PN": 6607,
  "PP": 6859,
  "PS": 2905,
  "PU": 3639,
  "Q": 56,
  "R": 57,
  "RA": 4678,
  "RE": 2140,
  "RR": 6466,
  "RS": 5977,
  "S": 58,
  "SE": 6889,
  "SS": 6453,
  "ST": 2859,
  "St": 5167,
  "T": 59,
  "TA": 6624,
  "TC": 5483,
  "TER": 7495,
  "TF": 5198,
  "TH": 4658,
  "TS": 5417,
  "Th": 5140,
  "The": 2839,
  "This": 6964,
  "U": 60,
  "UR": 7027,
  "US": 4429,
  "UST": 6583,
  "UT": 4077,
  "UU": 6785,
  "V": 61,
  "VE": 3363,
  "VER": 3465,
  "VP": 6044,
  "W": 62,
  "We": 6669,
  "What": 6524,
  "X": 63,
  "Y": 64,
  "You": 4567,
  "Z": 65,
  "[": 66,
  "\\": 67,
  "]": 68,
  "](": 5176,
  "](/": 6331,
  "]]": 7870,
  "^": 69,
  "^^": 1885,
  "_": 70,
  "__": 2784,
  "__FP16_PAD_0__": 8004,
  "__FP16_PAD_1__": 8005,
  "__FP16_PAD_2__": 8006,
  "__FP16_PAD_3__": 8007,
  "____": 5134,
  "`": 71,
  "a": 72,
  "aa": 2505,
  "aaaa": 5873,
  "ab": 439,
  "ability": 2657,
  "able": 653,
  "abled": 6030,
  "ables": 3870,
  "ably": 746,
  "abor": 5565,
  "aborate": 7598,
  "abs": 5215,
  "aby": 7086,
  "ac": 339,
  "acc": 6248,
  "ace": 663,
  "aced": 2745,
  "acement": 5085,
  "aces": 2009,
  "ach": 786,
  "ache": 6327,
  "ached": 3592,
  "aches": 4521,
  "aching": 4167,
  "acing": 4548,
  "acity": 6283,
  "ack": 483,
  "acking": 2506,
  "acks": 4195,
  "acle": 6211,
  "aco": 7249,
  "act": 557,
  "action": 2461,
  "actions": 7450,
  "actly": 4987,
  "acy": 2022,
  "ad": 352,
  "ada": 5367,
  "adays": 6912,
  "ade": 679,
  "aded": 4822,
  "adem": 6237,
  "ader": 6705,
  "ades": 2741,
  "ading": 4073,
  "adium": 7022,
  "ado": 5627,
  "ads": 4718,
  "ady": 5594,
  "af": 2816,
  "afe": 6904,
  "aff": 2783,
  "ag": 558,
  "age": 610,
  "aged": 3794,
  "ager": 4597,
  "agers": 7995,
  "ages": 1862,
  "agger": 5751,
  "agine": 4500,
  "aging": 3896,
  "agn": 4130,
  "ago": 5784,
  "agon": 4757,
  "agram": 7864,
  "ags": 6682,
  "ague": 1915,
  "agues": 7675,
  "ah": 775,
  "ai": 2854,
  "aid": 1366,
  "aign": 3546,
  "ail": 979,
  "ails": 2777,
  "aim": 1882,
  "ain": 496,
  "aine": 7555,
  "ains": 3937,
  "aint": 6741,
  "air": 1489,
  "airs": 5170,
  "ait": 1026,
  "ak": 687,
  "aka": 7612,
  "ake": 1184,
  "aked": 3475,
  "aken": 5969,
  "aker": 3874,
  "akers": 6133,
  "akes": 2571,
  "aking": 1502,
  "aks": 2973,
  "al": 322,
  "alax": 6441,
  "alaxy": 6953,
  "ald": 3279,
  "ale": 1421,
  "aled": 7485,
  "ales": 4155,
  "aling": 6448,
  "ality": 1403,
  "alk": 4603,
  "all": 344,
  "allow": 6329,
  "ally": 365,
  "als": 1095,
  "alse": 4021,
  "alth": 1285,
  "alty": 5186,
  "aly": 4291,
  "am": 343,
  "ama": 2100,
  "amb": 4306,
  "ame": 428,
  "amed": 3578,
  "ament": 3897,
  "amer": 2340,
  "ames": 890,
  "ami": 7597,
  "aming": 2469,
  "amm": 4332,
  "ammar": 7687,
  "amn": 2779,
  "amp": 1373,
  "ample": 1633,
  "amples": 4755,
  "ams": 2573,
  "amsung": 7200,
  "an": 295,
  "ana": 2967,
  "anc": 3962,
  "ance": 801,
  "anced": 3388,
  "ances": 2797,
  "anch": 4049,
  "ancing": 6307,
  "ancy": 4811,
  "and": 499,
  "anda": 5220,
  "ander": 5940,
  "andom": 2058,
  "ands": 2658,
  "ane": 1446,
  "ang": 1147,
  "ange": 1526,
  "anger": 2412,
  "angers": 5802,
  "angu": 2542,
  "aning": 4803,
  "anish": 6193,
  "ank": 1173,
  "anks": 3973,
  "ann": 4312,
  "anna": 2980,
  "ano": 7002,
  "ans": 611,
  "ant": 408,
  "anta": 6169,
  "anted": 4047,
  "antic": 5234,
  "antly": 1977,
  "ants": 1761,
  "any": 1378,
  "ap": 571,
  "apan": 2961,
  "ape": 2110,
  "aper": 2474,
  "apers": 6868,
  "app": 1461,
  "apped": 6499,
  "apping": 6849,
  "aps": 4321,
  "apt": 2599,
  "ar": 305,
  "ara": 4938,
  "arant": 3461,
  "arb": 2904,
  "arbage": 4251,
  "arc": 3787,
  "arch": 1841,
  "ard": 519,
  "arded": 4430,
  "arden": 6982,
  "ards": 1005,
  "are": 539,
  "ared": 1507,
  "arely": 2562,
  "arent": 1172,
  "arently": 2476,
  "ares": 5289,
  "ari": 2168,
  "arian": 3835,
  "aries": 3518,
  "arily": 2752,
  "ario": 3743,
  "ark": 926,
  "arly": 1033,
  "arm": 4200,
  "arma": 4889,
  "arn": 1212,
  "arr": 2375,
  "arrass": 4821,
  "ars": 1209,
  "art": 474,
  "arter": 4294,
  "arth": 2346,
  "ary": 838,
  "as": 318,
  "asant": 7729,
  "asc": 3387,
  "ase": 692,
  "ased": 1819,
  "ases": 3382,
  "ash": 1105,
  "ashed": 4830,
  "ashes": 6556,
  "ashing": 5137,
  "ashion": 6055,
  "asing": 3565,
  "ask": 3280,
  "asks": 7614,
  "asm": 5243,
  "ason": 709,
  "asp": 6593,
  "ass": 656,
  "ast": 478,
  "aste": 2143,
  "aster": 2817,
  "astic": 2519,
  "asty": 6041,
  "asure": 4016,
  "asy": 3426,
  "at": 303,
  "ata": 2276,
  "atch": 1558,
  "ate": 470,
  "ated": 752,
  "ately": 1253,
  "ater": 1304,
  "ates": 1073,
  "ath": 1038,
  "ather": 1054,
  "atholic": 6674,
  "athy": 5904,
  "atic": 2287,
  "atically": 4168,
  "ating": 892,
  "ation": 464,
  "ational": 1914,
  "ations": 1024,
  "ative": 1171,
  "atively": 3721,
  "atives": 3710,
  "ato": 5290,
  "ator": 2032,
  "ators": 3464,
  "atory": 4697,
  "ats": 1230,
  "att": 2406,
  "attle": 6940,
  "attoo": 4731,
  "atur": 2161,
  "atural": 7902,
  "aturday": 6595,
  "ature": 1949,
  "atures": 3888,
  "au": 433,
  "aud": 4413,
  "augh": 1903,
  "aught": 3990,
  "aughter": 3539,
  "aul": 3587,
  "ault": 1996,
  "aur": 3000,
  "aus": 6648,
  "ause": 501,
  "aut": 2242,
  "av": 1123,
  "ava": 6724,
  "ave": 905,
  "aven": 5082,
  "avy": 5548,
  "aw": 1004,
  "away": 7185,
  "awn": 3298,
  "ax": 1892,
  "ay": 321,
  "aying": 5225,
  "ays": 2554,
  "az": 997,
  "b": 73,
  "ba": 5912,
  "bably": 805,
  "back": 2503,
  "bad": 7378,
  "bal": 3273,
  "ball": 1884,
  "ban": 4902,
  "band": 3047,
  "bar": 5287,
  "base": 5924,
  "based": 7829,
  "bb": 5485,
  "bble": 6233,
  "be": 690,
  "because": 6782,
  "bed": 3448,
  "bel": 5294,
  "belie": 7844,
  "bell": 7038,
  "ber": 708,
  "berg": 7946,
  "bers": 2840,
  "bert": 5064,
  "bet": 6677,
  "bh": 4169,
  "bi": 6218,
  "bies": 7930,
  "bing": 3530,
  "bit": 2700,
  "bits": 7432,
  "bl": 3080,
  "ble": 572,
  "blem": 931,
  "bo": 1312,
  "board": 2962,
  "body": 1350,
  "bon": 6488,
  "book": 2692,
  "bor": 3354,
  "born": 6309,
  "bow": 5138,
  "box": 2609,
  "boy": 4385,
  "br": 1816,
  "bre": 4618,
  "bro": 6587,
  "bron": 7859,
  "bs": 1372,
  "bt": 1872,
  "bum": 3376,
  "bur": 5322,
  "but": 2871,
  "by": 2014,
  "c": 74,
  "can": 4098,
  "car": 7584,
  "care": 4390,
  "cast": 3556,
  "cc": 1762,
  "ccer": 7410,
  "ce": 390,
  "cean": 7283,
  "ced": 1224,
  "ceed": 3969,
  "cel": 4541,
  "cell": 3532,
  "cellent": 4838,
  "cend": 5676,
  "cent": 3334,
  "cept": 1040,
  "ception": 5711,
  "cer": 2740,
  "ces": 1108,
  "cess": 1315,
  "ch": 488,
  "cha": 2050,
  "chan": 7502,
  "char": 7746,
  "che": 2190,
  "check": 7416,
  "ched": 1565,
  "chen": 5659,
  "cher": 2937,
  "chers": 7311,
  "ches": 1810,
  "chie": 3611,
  "ching": 1321,
  "cho": 7279,
  "chool": 1159,
  "ci": 1317,
  "cial": 1529,
  "cient": 5708,
  "cil": 7805,
  "cing": 2388,
  "cious": 4342,
  "ck": 666,
  "cking": 2869,
  "cks": 2563,
  "cl": 2306,
  "class": 7244,
  "cle": 1910,
  "cles": 6189,
  "cluding": 7621,
  "co": 1624,
  "cohol": 3687,
  "coin": 4763,
  "com": 1864,
  "come": 2711,
  "coming": 6541,
  "con": 1844,
  "conom": 2645,
  "cons": 5557,
  "cont": 7150,
  "core": 5426,
  "craft": 5504,
  "cs": 6942,
  "ct": 468,
  "ction": 2693,
  "ctor": 6916,
  "cul": 4475,
  "cut": 7840,
  "cy": 1389,
  "d": 75,
  "da": 4519,
  "day": 1097,
  "dd": 1291,
  "dden": 3395,
  "de": 2765,
  "ded": 6136,
  "den": 2915,
  "der": 1274,
  "des": 5530,
  "ding": 2910,
  "dit": 700,
  "dition": 2959,
  "dle": 1964,
  "do": 2847,
  "dom": 5493,
  "don": 5080,
  "dow": 4330,
  "down": 3842,
  "dr": 4645,
  "dra": 5308,
  "ds": 4172,
  "duc": 1081,
  "duct": 7373,
  "dy": 3108,
  "e": 76,
  "ea": 3196,
  "ead": 1064,
  "eah": 949,
  "eal": 2638,
  "ealous": 6225,
  "ear": 548,
  "eared": 7564,
  "ears": 2790,
  "ec": 377,
  "ecause": 1550,
  "ech": 1292,
  "echan": 2835,
  "ecially": 1406,
  "eck": 4942,
  "ecraft": 7892,
  "ect": 523,
  "ected": 2642,
  "ection": 1883,
  "ed": 296,
  "edi": 7461,
  "edit": 7698,
  "eds": 5532,
  "ee": 1138,
  "eed": 2928,
  "eeee": 7820,
  "eem": 7147,
  "een": 7186,
  "ees": 3562,
  "eez": 7537,
  "ef": 1318,
  "eg": 1294,
  "ega": 7655,
  "ege": 2142,
  "egr": 5248,
  "ek": 4893,
  "el": 491,
  "eless": 6064,
  "eline": 5495,
  "ell": 921,
  "elling": 6046,
  "els": 1800,
  "elt": 1811,
  "ely": 898,
  "em": 443,
  "ember": 1222,
  "ement": 2027,
  "ements": 5356,
  "emp": 2601,
  "employ": 7438,
  "empt": 2426,
  "ems": 1757,
  "en": 292,
  "ena": 7231,
  "enance": 7409,
  "enc": 5540,
  "ence": 753,
  "ences": 3958,
  "encies": 7559,
  "ency": 2534,
  "end": 524,
  "ended": 2516,
  "ender": 2727,
  "enders": 7176,
  "ending": 2098,
  "endo": 4875,
  "ends": 2419,
  "ene": 5947,
  "ened": 4023,
  "eng": 3236,
  "ength": 5042,
  "ening": 4003,
  "enn": 3883,
  "ens": 724,
  "ense": 975,
  "enses": 4882,
  "ension": 4214,
  "ensive": 1664,
  "ent": 347,
  "ential": 5011,
  "entially": 3431,
  "ention": 1122,
  "ently": 1500,
  "ents": 1043,
  "enty": 2547,
  "eop": 451,
  "eople": 455,
  "ep": 583,
  "epend": 4525,
  "ept": 5252,
  "equ": 6909,
  "er": 276,
  "erable": 7509,
  "eral": 2785,
  "erally": 1416,
  "erate": 4691,
  "eration": 6821,
  "erc": 3207,
  "ere": 543,
  "ered": 1245,
  "erence": 2804,
  "erent": 7426,
  "erest": 1036,
  "erg": 4648,
  "ergy": 2940,
  "erial": 3353,
  "ering": 1160,
  "erk": 5796,
  "erm": 2976,
  "erman": 2836,
  "ern": 1276,
  "ername": 6277,
  "ero": 2362,
  "ers": 416,
  "erson": 750,
  "ert": 1009,
  "ertain": 1302,
  "erv": 2063,
  "erve": 6978,
  "ery": 2079,
  "es": 290,
  "ese": 2417,
  "esh": 5729,
  "esides": 3492,
  "esome": 1706,
  "especially": 7210,
  "ess": 436,
  "essed": 6111,
  "ession": 4242,
  "essions": 7544,
  "est": 424,
  "ester": 5800,
  "estern": 4416,
  "estic": 7965,
  "ests": 5809,
  "esus": 3093,
  "et": 323,
  "eter": 7222,
  "eth": 3366,
  "ether": 7028,
  "etic": 6360,
  "etime": 7554,
  "ets": 1272,
  "ett": 6972,
  "ette": 7659,
  "ety": 1658,
  "ev": 3384,
  "even": 5214,
  "ever": 844,
  "every": 6892,
  "evit": 7170,
  "ew": 1120,
  "ex": 1404,
  "exic": 4573,
  "ext": 3125,
  "ey": 3110,
  "f": 77,
  "face": 3793,
  "fall": 6276,
  "fast": 6151,
  "fe": 6122,
  "fect": 7121,
  "fer": 1748,
  "ff": 568,
  "ffect": 7355,
  "ffic": 3401,
  "field": 4262,
  "fire": 5789,
  "fit": 5667,
  "fl": 3383,
  "flix": 5405,
  "for": 2174,
  "force": 4587,
  "ford": 7085,
  "fore": 742,
  "form": 2456,
  "fort": 1566,
  "fortable": 2990,
  "fortun": 2569,
  "fortunately": 2917,
  "fr": 4879,
  "free": 6405,
  "friend": 3348,
  "fs": 3390,
  "ft": 843,
  "fter": 698,
  "fting": 7058,
  "fuck": 4515,
  "ful": 912,
  "fully": 1803,
  "fun": 7374,
  "g": 78,
  "ga": 4156,
  "game": 4516,
  "gan": 1976,
  "gar": 4125,
  "ge": 411,
  "ged": 2125,
  "gen": 4112,
  "gency": 6303,
  "gend": 3142,
  "geon": 6025,
  "ger": 995,
  "gers": 3909,
  "ges": 2441,
  "gest": 2415,
  "get": 959,
  "gg": 904,
  "gged": 5007,
  "ggest": 1842,
  "gging": 4809,
  "gh": 345,
  "ght": 389,
  "ghter": 7948,
  "gic": 7122,
  "gin": 1889,
  "ging": 2172,
  "gins": 6831,
  "gl": 7179,
  "gle": 1860,
  "gly": 4828,
  "gment": 7519,
  "gn": 2912,
  "go": 2627,
  "gon": 2822,
  "good": 5928,
  "got": 2621,
  "gr": 1076,
  "gram": 2055,
  "gress": 2060,
  "ground": 3421,
  "gs": 3305,
  "gu": 5273,
  "gun": 4387,
  "gy": 1723,
  "h": 79,
  "ha": 274,
  "hab": 6952,
  "hael": 5891,
  "haha": 4596,
  "hal": 6240,
  "ham": 4712,
  "han": 418,
  "hand": 4569,
  "hange": 4123,
  "hant": 5436,
  "haps": 2721,
  "har": 1817,
  "hard": 5559,
  "has": 5694,
  "hat": 299,
  "haw": 7371,
  "he": 266,
  "head": 2235,
  "hed": 873,
  "hel": 3454,
  "hem": 5379,
  "hen": 972,
  "her": 388,
  "here": 978,
  "hered": 5202,
  "herent": 6026,
  "hern": 4729,
  "hers": 5562,
  "hes": 1068,
  "hest": 4011,
  "het": 2595,
  "hetic": 4337,
  "hh": 2379,
  "hhhh": 7449,
  "hi": 7417,
  "hib": 6695,
  "hile": 6389,
  "hing": 426,
  "hington": 7712,
  "hip": 2782,
  "hn": 3123,
  "ho": 5603,
  "hol": 3394,
  "hold": 5041,
  "hood": 3324,
  "hor": 3036,
  "host": 4415,
  "hot": 6518,
  "house": 5945,
  "how": 2374,
  "hr": 6834,
  "hy": 4290,
  "i": 80,
  "ia": 821,
  "iable": 5030,
  "ial": 725,
  "ially": 1047,
  "ials": 7476,
  "iam": 5224,
  "ian": 968,
  "iance": 5059,
  "ians": 1804,
  "iant": 4402,
  "ias": 7664,
  "iat": 6635,
  "iate": 5513,
  "iating": 7811,
  "iation": 6777,
  "ib": 996,
  "iber": 5935,
  "ibility": 2651,
  "ible": 928,
  "ibly": 1835,
  "ic": 317,
  "ica": 4317,
  "icago": 6576,
  "ical": 834,
  "ically": 829,
  "ican": 6672,
  "icate": 5117,
  "icated": 4842,
  "ication": 3708,
  "ice": 561,
  "iced": 2393,
  "ices": 1574,
  "ich": 638,
  "icial": 6473,
  "icing": 4715,
  "icious": 6299,
  "ick": 606,
  "icked": 7903,
  "icking": 2613,
  "icks": 2153,
  "icle": 2167,
  "icles": 3983,
  "ics": 1029,
  "ict": 924,
  "icted": 4752,
  "iction": 3224,
  "icul": 1707,
  "icularly": 4099,
  "iculous": 2501,
  "icult": 2424,
  "iculty": 6172,
  "icy": 6592,
  "id": 333,
  "ida": 5357,
  "iday": 4033,
  "idden": 5194,
  "ide": 520,
  "ided": 1928,
  "idence": 2215,
  "ident": 1277,
  "idents": 6102,
  "ider": 1504,
  "idered": 2662,
  "idering": 2556,
  "iders": 5909,
  "ides": 1731,
  "idge": 3884,
  "iding": 3297,
  "ids": 3666,
  "ie": 521,
  "iec": 1961,
  "ied": 1241,
  "ief": 4546,
  "iel": 7239,
  "ield": 1516,
  "ien": 1838,
  "ience": 1142,
  "iency": 7685,
  "ient": 1635,
  "ients": 4323,
  "ier": 1129,
  "iers": 4224,
  "ies": 559,
  "iest": 3709,
  "iet": 3117,
  "iety": 4670,
  "iew": 1839,
  "if": 355,
  "ife": 795,
  "iff": 711,
  "ifi": 7790,
  "ific": 1233,
  "ifically": 3104,
  "ification": 3965,
  "ifications": 7706,
  "ifice": 7489,
  "ified": 2271,
  "ifies": 7625,
  "iform": 7722,
  "iforn": 5098,
  "ifornia": 5297,
  "ift": 2149,
  "iful": 3064,
  "ify": 2037,
  "ifying": 4080,
  "ig": 457,
  "igan": 6589,
  "ige": 7545,
  "igh": 823,
  "ight": 434,
  "ighter": 4881,
  "ighters": 7024,
  "ights": 4726,
  "ign": 769,
  "igs": 5644,
  "ii": 3415,
  "ij": 3572,
  "ijuana": 7456,
  "ik": 2043,
  "ike": 1273,
  "iki": 7345,
  "il": 412,
  "ilar": 1477,
  "ild": 763,
  "ile": 664,
  "iled": 6888,
  "iles": 4131,
  "ili": 3315,
  "iliar": 4680,
  "ilies": 6011,
  "iling": 4584,
  "ilities": 3061,
  "ility": 1181,
  "ill": 362,
  "illa": 4288,
  "ille": 5482,
  "illed": 5232,
  "iller": 7026,
  "illiant": 7423,
  "illing": 4839,
  "illion": 7286,
  "ills": 3948,
  "illy": 3131,
  "ilos": 5394,
  "ils": 4660,
  "ilst": 7970,
  "ilt": 2386,
  "ilty": 4833,
  "ily": 875,
  "im": 340,
  "imate": 2467,
  "imately": 3944,
  "ime": 1188,
  "iment": 4174,
  "imes": 1396,
  "imm": 6930,
  "imp": 7323,
  "in": 267,
  "ina": 2095,
  "inal": 1692,
  "inals": 7081,
  "inary": 5860,
  "inate": 5166,
  "inated": 5276,
  "inating": 6558,
  "ination": 2618,
  "inc": 3099,
  "ince": 822,
  "incip": 6068,
  "inct": 5306,
  "ind": 503,
  "inder": 5730,
  "inds": 6921,
  "ine": 556,
  "ined": 1769,
  "inem": 7900,
  "ines": 1418,
  "inese": 4095,
  "iness": 1551,
  "ing": 278,
  "inge": 5305,
  "inger": 6350,
  "ingly": 6569,
  "ings": 1252,
  "ini": 6804,
  "ining": 1879,
  "inite": 6575,
  "initely": 4163,
  "inity": 5807,
  "ink": 467,
  "inking": 1311,
  "inks": 7767,
  "inn": 7105,
  "ino": 3786,
  "ins": 1243,
  "inst": 4635,
  "install": 7361,
  "int": 640,
  "intendo": 5171,
  "inter": 4980,
  "inting": 3641,
  "inton": 4698,
  "ints": 5971,
  "iny": 2233,
  "io": 1293,
  "iod": 2929,
  "ion": 337,
  "ional": 1511,
  "ionally": 3854,
  "ions": 667,
  "ior": 2081,
  "ios": 4341,
  "iosity": 7765,
  "iot": 2401,
  "iots": 5083,
  "ious": 670,
  "iously": 1106,
  "ip": 620,
  "ipe": 3329,
  "iped": 5624,
  "iper": 5859,
  "ipes": 7049,
  "ipp": 1638,
  "ipped": 3195,
  "ipping": 3092,
  "ips": 2073,
  "iqu": 6811,
  "ique": 5010,
  "ir": 363,
  "irc": 7699,
  "ird": 1221,
  "ire": 604,
  "irect": 1535,
  "ired": 1472,
  "ires": 3579,
  "iring": 3498,
  "irl": 6242,
  "irm": 2773,
  "iron": 3406,
  "irst": 697,
  "irt": 2429,
  "irth": 3013,
  "irts": 6828,
  "irty": 4495,
  "is": 282,
  "isc": 4484,
  "ise": 923,
  "ised": 1549,
  "iser": 7088,
  "ises": 3347,
  "isf": 4423,
  "ish": 762,
  "ished": 2045,
  "ishes": 5547,
  "ishing": 3351,
  "ising": 2218,
  "ision": 1806,
  "isions": 4010,
  "isl": 7169,
  "ism": 1132,
  "ison": 2102,
  "iss": 866,
  "ist": 479,
  "istan": 7466,
  "istent": 7078,
  "ister": 2655,
  "isters": 7683,
  "istic": 2439,
  "istically": 6631,
  "istics": 6406,
  "istol": 7073,
  "istration": 6529,
  "istry": 7099,
  "ists": 1382,
  "it": 277,
  "ita": 6200,
  "ital": 1980,
  "itar": 5321,
  "itary": 3070,
  "itate": 7933,
  "itation": 6282,
  "itch": 1671,
  "ite": 579,
  "ited": 1353,
  "itely": 1247,
  "ites": 3069,
  "ith": 354,
  "ither": 1022,
  "ities": 1380,
  "iting": 1821,
  "ition": 1125,
  "itions": 4005,
  "itive": 1749,
  "itiz": 3595,
  "itor": 3860,
  "itors": 7344,
  "its": 1131,
  "itt": 6923,
  "itter": 4053,
  "itude": 3777,
  "itut": 5480,
  "itute": 7740,
  "itution": 5725,
  "ity": 533,
  "itz": 7064,
  "ium": 2248,
  "ius": 4543,
  "iv": 693,
  "ival": 2924,
  "ive": 481,
  "ived": 3112,
  "ively": 2194,
  "iven": 4152,
  "iveness": 7550,
  "iver": 4266,
  "ivers": 5363,
  "ives": 1375,
  "ivid": 2774,
  "ivil": 3310,
  "iving": 4134,
  "ivity": 4747,
  "ix": 1072,
  "iz": 651,
  "ization": 2706,
  "ize": 1079,
  "ized": 1458,
  "izes": 4946,
  "izing": 2803,
  "izon": 7928,
  "izz": 2624,
  "izza": 4425,
  "izzard": 5885,
  "j": 81,
  "ja": 5158,
  "ject": 1287,
  "ji": 6300,
  "jo": 6560,
  "jor": 1590,
  "joy": 1450,
  "just": 2665,
  "k": 82,
  "ka": 3885,
  "ke": 334,
  "ked": 1055,
  "keep": 7517,
  "ken": 1415,
  "kend": 3113,
  "ker": 2787,
  "kers": 6198,
  "kes": 741,
  "ket": 5102,
  "key": 2811,
  "ki": 5589,
  "kin": 4223,
  "king": 420,
  "kings": 7748,
  "kn": 5328,
  "known": 6962,
  "ko": 6744,
  "ks": 511,
  "ku": 6976,
  "kward": 4553,
  "ky": 2352,
  "l": 83,
  "la": 4673,
  "lain": 1244,
  "lam": 4263,
  "land": 1641,
  "lands": 5614,
  "law": 7467,
  "lay": 3079,
  "layer": 5475,
  "ld": 331,
  "lder": 7395,
  "le": 308,
  "lear": 5340,
  "lease": 1197,
  "lebr": 4761,
  "lect": 1278,
  "led": 1266,
  "ledge": 2720,
  "lee": 3691,
  "leep": 2040,
  "leg": 6883,
  "lement": 2695,
  "ler": 1853,
  "lers": 6024,
  "les": 917,
  "less": 865,
  "lessly": 7324,
  "let": 956,
  "levant": 6052,
  "level": 7755,
  "lex": 2402,
  "ley": 3538,
  "lf": 639,
  "lfriend": 3453,
  "li": 1003,
  "lic": 1037,
  "licit": 6919,
  "lied": 3954,
  "lier": 3409,
  "lies": 4177,
  "life": 6817,
  "lig": 4703,
  "light": 2826,
  "like": 1909,
  "lim": 2607,
  "lin": 4447,
  "line": 1423,
  "lines": 6482,
  "ling": 1401,
  "lings": 7454,
  "lish": 2270,
  "lished": 5692,
  "list": 4742,
  "lit": 3024,
  "liv": 7577,
  "lix": 5114,
  "ll": 289,
  "llen": 2767,
  "lling": 7652,
  "lly": 5521,
  "lo": 589,
  "load": 2138,
  "loc": 6844,
  "lock": 1788,
  "look": 6794,
  "lor": 6809,
  "lord": 7123,
  "los": 6757,
  "loy": 1916,
  "ls": 2327,
  "lt": 1271,
  "lus": 2557,
  "ly": 328,
  "lying": 2614,
  "m": 84,
  "ma": 1716,
  "making": 7957,
  "man": 1192,
  "mao": 4400,
  "mar": 6236,
  "mark": 5197,
  "mart": 5870,
  "mas": 3975,
  "mat": 7394,
  "mate": 7574,
  "mates": 5376,
  "may": 5949,
  "maybe": 6932,
  "mb": 3304,
  "mber": 5931,
  "me": 2034,
  "med": 1419,
  "medi": 2610,
  "men": 4377,
  "ment": 573,
  "ments": 1662,
  "mer": 936,
  "meric": 1295,
  "met": 4089,
  "mg": 4008,
  "min": 2806,
  "mind": 7089,
  "ming": 1985,
  "miss": 3082,
  "mission": 4759,
  "mit": 2092,
  "mm": 1525,
  "mmer": 3045,
  "mo": 773,
  "mod": 7672,
  "mon": 2217,
  "mor": 3001,
  "more": 1767,
  "most": 1193,
  "mp": 1646,
  "ms": 1383,
  "my": 2508,
  "n": 85,
  "na": 1050,
  "nal": 6525,
  "nam": 2808,
  "name": 7087,
  "nb": 7739,
  "nce": 1100,
  "nces": 4158,
  "nd": 283,
  "nda": 7591,
  "nder": 710,
  "ne": 964,
  "nec": 5515,
  "necess": 5976,
  "ned": 2075,
  "nel": 3545,
  "nels": 7856,
  "ner": 1336,
  "ners": 3428,
  "nes": 5298,
  "ness": 1409,
  "net": 5682,
  "new": 5218,
  "ney": 2865,
  "ng": 1089,
  "nger": 4389,
  "nic": 7129,
  "night": 3931,
  "ning": 797,
  "nn": 6543,
  "no": 1940,
  "non": 6137,
  "not": 1462,
  "nov": 7953,
  "now": 3145,
  "nt": 429,
  "ny": 955,
  "o": 86,
  "ob": 1546,
  "oc": 871,
  "ock": 1425,
  "ockey": 6279,
  "ocking": 6002,
  "ocks": 6632,
  "ocol": 5478,
  "ocolate": 7039,
  "ocr": 2181,
  "ocre": 8000,
  "od": 621,
  "ode": 1648,
  "odes": 3697,
  "ody": 1001,
  "oe": 4165,
  "oes": 3285,
  "of": 2185,
  "off": 2360,
  "og": 851,
  "ogn": 3505,
  "ograph": 4180,
  "ography": 7305,
  "ogs": 7630,
  "ogue": 5361,
  "oh": 4226,
  "oice": 1668,
  "oices": 4052,
  "oid": 1807,
  "oil": 2889,
  "oint": 2166,
  "ointing": 7541,
  "ok": 2477,
  "oke": 2484,
  "oken": 7142,
  "ol": 453,
  "ola": 7521,
  "olar": 7959,
  "old": 1078,
  "ole": 1765,
  "olen": 7419,
  "oles": 2744,
  "olf": 5492,
  "olic": 5054,
  "oll": 1210,
  "ollow": 7960,
  "olly": 6443,
  "olog": 1448,
  "ological": 4682,
  "ology": 2433,
  "olt": 5817,
  "olut": 1284,
  "olution": 3493,
  "olve": 5761,
  "olved": 6505,
  "olves": 7230,
  "oly": 2584,
  "om": 307,
  "oma": 7777,
  "oman": 4568,
  "omb": 2259,
  "ome": 386,
  "omed": 6965,
  "omen": 4334,
  "omet": 625,
  "omin": 7715,
  "omm": 1412,
  "ommend": 2052,
  "oms": 3906,
  "omy": 7534,
  "on": 273,
  "ona": 5658,
  "ond": 696,
  "onday": 6751,
  "onder": 6756,
  "ondon": 6668,
  "one": 409,
  "oned": 5113,
  "ones": 1712,
  "onest": 1183,
  "oney": 918,
  "ong": 542,
  "onic": 6223,
  "only": 6415,
  "onn": 5827,
  "onna": 1479,
  "ons": 861,
  "onse": 2919,
  "ont": 1162,
  "onto": 7666,
  "ony": 2381,
  "onym": 7285,
  "oo": 357,
  "ood": 495,
  "oogle": 2480,
  "ook": 985,
  "ooking": 3469,
  "ooks": 2819,
  "ool": 779,
  "oon": 3433,
  "ooo": 7478,
  "oooo": 3190,
  "oop": 4356,
  "oor": 7430,
  "oot": 1126,
  "op": 374,
  "ope": 951,
  "oph": 2884,
  "opp": 5829,
  "ops": 3605,
  "or": 285,
  "ora": 5992,
  "orable": 6377,
  "orage": 6460,
  "oral": 7542,
  "orce": 5741,
  "ord": 825,
  "order": 3386,
  "orders": 7780,
  "ording": 3704,
  "ords": 4097,
  "ore": 522,
  "ored": 2372,
  "ores": 7379,
  "org": 7080,
  "orge": 4743,
  "orida": 6297,
  "ories": 1912,
  "oring": 2106,
  "ork": 1673,
  "orm": 765,
  "ormal": 6597,
  "orn": 1367,
  "orrect": 5401,
  "orrow": 7968,
  "orry": 1354,
  "ors": 961,
  "ort": 514,
  "orter": 4600,
  "orters": 5284,
  "orth": 2602,
  "ortion": 4919,
  "orts": 2237,
  "ortun": 3210,
  "ory": 798,
  "os": 657,
  "ose": 668,
  "osed": 1480,
  "osen": 7223,
  "oses": 6132,
  "osexual": 7097,
  "osh": 4139,
  "osing": 7496,
  "osis": 6970,
  "osition": 7441,
  "osp": 3067,
  "osphere": 7904,
  "oss": 2201,
  "ossible": 3191,
  "ost": 1071,
  "oster": 7787,
  "oston": 7406,
  "ot": 311,
  "ota": 4064,
  "ote": 1186,
  "oth": 1969,
  "other": 744,
  "otic": 5259,
  "ots": 1374,
  "ott": 3945,
  "oty": 5387,
  "ou": 272,
  "oub": 7193,
  "ouble": 2885,
  "ouch": 7225,
  "oud": 2163,
  "ough": 506,
  "ought": 757,
  "oul": 7385,
  "ould": 356,
  "oun": 2389,
  "ounce": 4075,
  "ounced": 5245,
  "ound": 532,
  "ounds": 2097,
  "ount": 686,
  "ounter": 6135,
  "our": 512,
  "oura": 3600,
  "ource": 2299,
  "ources": 3185,
  "ours": 5743,
  "ous": 554,
  "ouse": 1232,
  "ously": 4609,
  "out": 348,
  "outh": 2084,
  "outhern": 7076,
  "outs": 4624,
  "ov": 4634,
  "ove": 1513,
  "over": 2781,
  "overed": 5629,
  "overy": 6600,
  "ow": 320,
  "ower": 944,
  "owing": 1442,
  "own": 609,
  "ownt": 6739,
  "ows": 1328,
  "ox": 2667,
  "oy": 874,
  "p": 87,
  "pa": 6833,
  "pack": 7741,
  "pan": 7044,
  "par": 2396,
  "parent": 7327,
  "part": 5671,
  "pass": 6153,
  "pay": 7620,
  "pe": 980,
  "pecially": 1666,
  "pect": 2129,
  "ped": 1843,
  "per": 726,
  "pes": 5192,
  "pet": 4149,
  "ph": 1289,
  "pha": 5111,
  "phone": 5440,
  "phones": 6838,
  "ping": 2496,
  "pir": 4394,
  "piracy": 6357,
  "pl": 1114,
  "place": 7135,
  "play": 1987,
  "ple": 842,
  "ply": 1881,
  "pm": 5566,
  "point": 4518,
  "pol": 7063,
  "pool": 6270,
  "pop": 5957,
  "popular": 7824,
  "por": 3389,
  "port": 2966,
  "post": 6080,
  "pow": 7813,
  "power": 7009,
  "pp": 413,
  "pped": 2298,
  "pper": 3785,
  "pping": 2992,
  "ppy": 4184,
  "pr": 1370,
  "pre": 4514,
  "pret": 6670,
  "pri": 3178,
  "priate": 4781,
  "pro": 2603,
  "ps": 828,
  "pt": 642,
  "pting": 6827,
  "ption": 4959,
  "pu": 7691,
  "put": 2984,
  "q": 88,
  "qu": 489,
  "que": 2344,
  "quest": 7943,
  "r": 89,
  "ra": 450,
  "ract": 1454,
  "rael": 5109,
  "raft": 3483,
  "rage": 5714,
  "raid": 3588,
  "rain": 6280,
  "ral": 2208,
  "ram": 5810,
  "ran": 4550,
  "rand": 3899,
  "range": 5303,
  "rant": 4289,
  "rants": 6500,
  "rap": 2668,
  "raph": 3281,
  "raq": 7880,
  "ras": 7413,
  "rast": 5334,
  "rat": 5159,
  "rate": 4190,
  "rated": 3488,
  "rating": 4513,
  "ration": 2873,
  "rats": 6851,
  "ray": 3030,
  "rd": 3179,
  "re": 269,
  "read": 789,
  "ready": 1034,
  "real": 4104,
  "really": 7036,
  "ream": 1355,
  "reat": 643,
  "reci": 2691,
  "rect": 1582,
  "red": 796,
  "reddit": 2538,
  "ree": 673,
  "reed": 2796,
  "reement": 7172,
  "reen": 1593,
  "reens": 4589,
  "rees": 4094,
  "reet": 6165,
  "reg": 3670,
  "rel": 3048,
  "related": 6764,
  "rely": 6103,
  "rem": 1538,
  "reme": 6928,
  "ren": 1303,
  "rench": 4066,
  "rency": 6685,
  "rent": 1307,
  "res": 1679,
  "resent": 3326,
  "resh": 6166,
  "respect": 7065,
  "ress": 836,
  "ressed": 2641,
  "ressing": 5643,
  "ression": 2778,
  "ressive": 4524,
  "rest": 2580,
  "ret": 1675,
  "retch": 6347,
  "rets": 6860,
  "rew": 1775,
  "rey": 4409,
  "ri": 410,
  "ria": 5997,
  "riage": 3908,
  "rian": 6778,
  "rib": 1697,
  "ribe": 4160,
  "rible": 1711,
  "ribly": 6222,
  "ric": 1929,
  "rick": 7301,
  "rict": 4137,
  "rid": 6791,
  "rie": 6158,
  "ried": 1863,
  "riend": 793,
  "rier": 5460,
  "ries": 1939,
  "rig": 4853,
  "right": 1951,
  "rim": 3040,
  "ring": 2011,
  "rior": 5932,
  "riors": 6784,
  "ript": 2570,
  "ription": 4547,
  "ris": 4070,
  "rist": 1738,
  "rit": 3173,
  "rive": 7557,
  "ro": 350,
  "roat": 7404,
  "roc": 4968,
  "rocery": 7956,
  "roduc": 3683,
  "rog": 6069,
  "roid": 3905,
  "rol": 6621,
  "roll": 2175,
  "rom": 3103,
  "rome": 5753,
  "ron": 2013,
  "ront": 7525,
  "room": 2526,
  "rop": 4176,
  "ror": 2285,
  "rors": 7749,
  "ros": 5020,
  "ross": 1487,
  "rough": 6204,
  "round": 4857,
  "row": 1866,
  "rr": 6707,
  "rs": 3976,
  "ru": 1904,
  "ruct": 2500,
  "ruction": 4899,
  "ructure": 7742,
  "rum": 6534,
  "run": 6040,
  "rupt": 3163,
  "ry": 598,
  "s": 90,
  "sc": 2078,
  "school": 7992,
  "se": 330,
  "sea": 7988,
  "season": 6967,
  "sec": 3503,
  "sed": 2116,
  "see": 5990,
  "sel": 1618,
  "self": 780,
  "selves": 1742,
  "sen": 6187,
  "senal": 7916,
  "sequ": 4419,
  "ser": 2672,
  "ses": 2232,
  "set": 2229,
  "sey": 4684,
  "sh": 803,
  "sha": 6692,
  "she": 4933,
  "ship": 1531,
  "ships": 7157,
  "shit": 2253,
  "shot": 6485,
  "side": 1626,
  "sing": 1656,
  "sk": 7057,
  "sl": 7037,
  "sm": 6989,
  "so": 555,
  "soci": 4486,
  "soever": 7882,
  "soft": 5128,
  "sole": 3795,
  "some": 6209,
  "somet": 7821,
  "son": 3087,
  "sp": 1215,
  "spect": 4237,
  "ss": 540,
  "st": 300,
  "stal": 6010,
  "stand": 1007,
  "standing": 7350,
  "star": 6093,
  "ste": 6835,
  "stem": 1228,
  "ster": 1644,
  "sters": 3921,
  "ston": 6481,
  "stone": 6017,
  "stood": 4632,
  "str": 5653,
  "stream": 6402,
  "style": 7978,
  "sw": 1473,
  "sy": 2416,
  "t": 91,
  "ta": 2296,
  "tain": 5849,
  "tc": 1150,
  "te": 1981,
  "ted": 1545,
  "ten": 1090,
  "ter": 385,
  "terday": 3413,
  "tern": 1627,
  "ternal": 6492,
  "ters": 1112,
  "tery": 3250,
  "tf": 4186,
  "th": 536,
  "that": 3515,
  "the": 1553,
  "ther": 527,
  "there": 6553,
  "they": 4835,
  "thing": 674,
  "this": 4702,
  "though": 2307,
  "through": 7966,
  "ties": 5131,
  "time": 2832,
  "ting": 581,
  "tion": 4231,
  "tle": 771,
  "to": 1945,
  "ton": 1937,
  "top": 4637,
  "tr": 3633,
  "ts": 1135,
  "tt": 4947,
  "tty": 737,
  "tw": 3542,
  "ty": 613,
  "u": 92,
  "uable": 5805,
  "ual": 897,
  "ually": 629,
  "uana": 6666,
  "uary": 5816,
  "ub": 831,
  "ube": 2482,
  "ublic": 1391,
  "ubs": 6650,
  "uc": 380,
  "uce": 4314,
  "uch": 545,
  "uck": 646,
  "ucking": 1019,
  "ucks": 2545,
  "ucky": 7242,
  "uclear": 5697,
  "uct": 1808,
  "ud": 659,
  "udd": 6409,
  "ude": 1158,
  "udes": 4581,
  "uding": 6197,
  "ue": 590,
  "ued": 3478,
  "uel": 2946,
  "ues": 1269,
  "uf": 4659,
  "ufact": 5264,
  "uff": 981,
  "ug": 1217,
  "uge": 6048,
  "ugg": 2184,
  "ugs": 5406,
  "uh": 4260,
  "uild": 4613,
  "uine": 3698,
  "uing": 3917,
  "uit": 3720,
  "uk": 4646,
  "uke": 3926,
  "ul": 461,
  "ula": 5666,
  "ular": 1257,
  "ulate": 5373,
  "ulated": 5963,
  "ulation": 2398,
  "ulations": 6554,
  "ule": 3553,
  "ules": 2331,
  "ulf": 7211,
  "ulk": 5662,
  "ull": 733,
  "ully": 1722,
  "uls": 7919,
  "ult": 817,
  "ulting": 6075,
  "uly": 2769,
  "um": 460,
  "uman": 5903,
  "umb": 1270,
  "umber": 1672,
  "umble": 7265,
  "ume": 3143,
  "ument": 1992,
  "uments": 4401,
  "umer": 6671,
  "uming": 5641,
  "ump": 992,
  "umps": 5182,
  "ums": 4793,
  "un": 415,
  "unch": 1443,
  "und": 1607,
  "under": 4101,
  "une": 3529,
  "ung": 2072,
  "unity": 7888,
  "unk": 2018,
  "unt": 2311,
  "unte": 7538,
  "uous": 6459,
  "up": 887,
  "upid": 1570,
  "upp": 5174,
  "ups": 3789,
  "ur": 402,
  "ura": 6364,
  "ural": 3675,
  "urance": 3105,
  "urb": 5655,
  "urch": 3664,
  "urd": 4920,
  "ure": 567,
  "ured": 2833,
  "ures": 1499,
  "uries": 5835,
  "uring": 1325,
  "urity": 3198,
  "urn": 872,
  "uro": 2141,
  "urope": 2654,
  "urs": 3723,
  "urt": 6581,
  "ury": 2686,
  "us": 462,
  "use": 1719,
  "used": 1930,
  "uses": 3729,
  "ush": 1547,
  "ushed": 6224,
  "ushing": 6334,
  "using": 3463,
  "usion": 4309,
  "usive": 6278,
  "uss": 1282,
  "ust": 367,
  "ustain": 6456,
  "usted": 6368,
  "uster": 6090,
  "usting": 4450,
  "ustom": 2087,
  "ut": 329,
  "utch": 5628,
  "ute": 2369,
  "uted": 5123,
  "uth": 2789,
  "uting": 6973,
  "ution": 2146,
  "utions": 7396,
  "uto": 6627,
  "utor": 6245,
  "uts": 3331,
  "uty": 5897,
  "uu": 4120,
  "ux": 3214,
  "uy": 4261,
  "uz": 3277,
  "uzz": 5900,
  "v": 93,
  "va": 5093,
  "vable": 6537,
  "val": 3651,
  "van": 7561,
  "vant": 2850,
  "ve": 309,
  "ved": 883,
  "vel": 777,
  "velop": 1774,
  "ven": 498,
  "vent": 3629,
  "ver": 336,
  "verage": 1997,
  "vere": 4339,
  "vered": 4737,
  "vern": 1613,
  "vers": 907,
  "verse": 2384,
  "versity": 3640,
  "vert": 2938,
  "very": 449,
  "ves": 826,
  "vest": 5883,
  "vey": 5899,
  "vi": 7679,
  "vie": 1185,
  "vies": 2688,
  "view": 1978,
  "ville": 6675,
  "vin": 5266,
  "ving": 630,
  "viously": 4252,
  "vis": 6051,
  "vision": 7858,
  "vity": 6874,
  "vl": 5087,
  "vot": 2039,
  "vote": 3399,
  "vp": 7695,
  "vy": 6472,
  "w": 94,
  "wal": 7615,
  "war": 6235,
  "ward": 1468,
  "wards": 1726,
  "ware": 2510,
  "was": 7744,
  "watch": 5524,
  "way": 593,
  "ways": 785,
  "we": 859,
  "ween": 1265,
  "weet": 7407,
  "weight": 6139,
  "well": 3778,
  "wh": 1652,
  "what": 2632,
  "whel": 5599,
  "when": 7825,
  "where": 1400,
  "which": 2729,
  "while": 4812,
  "who": 5758,
  "why": 7205,
  "win": 6106,
  "wing": 5573,
  "wise": 2148,
  "with": 4650,
  "wl": 7167,
  "wn": 748,
  "wood": 5155,
  "wor": 3559,
  "word": 5572,
  "work": 2333,
  "works": 7716,
  "world": 7604,
  "wr": 6880,
  "ww": 5970,
  "x": 95,
  "xic": 4386,
  "xt": 857,
  "xual": 4773,
  "xx": 7977,
  "xy": 6372,
  "y": 96,
  "ya": 6745,
  "yal": 7795,
  "ye": 6740,
  "year": 6832,
  "yes": 6551,
  "ying": 1471,
  "yl": 6201,
  "yle": 2189,
  "ym": 3229,
  "yn": 3928,
  "yond": 3259,
  "you": 3059,
  "yr": 3622,
  "ys": 1199,
  "ysis": 6620,
  "yy": 5302,
  "z": 97,
  "za": 6565,
  "ze": 2577,
  "zen": 4093,
  "zer": 5537,
  "zil": 7188,
  "zy": 1764,
  "zz": 4765,
  "{": 98,
  "|": 99,
  "}": 100,
  "~": 101,
  "~~": 3768,
  "¡": 102,
  "¢": 103,
  "£": 104,
  "¤": 105,
  "¥": 106,
  "¦": 107,
  "§": 108,
  "¨": 109,
  "©": 110,
  "ª": 111,
  "«": 112,
  "¬": 113,
  "®": 114,
  "¯": 115,
  "°": 116,
  "±": 117,
  "²": 118,
  "³": 119,
  "´": 120,
  "µ": 121,
  "¶": 122,
  "·": 123,
  "¸": 124,
  "¹": 125,
  "º": 126,
  "»": 127,
  "¼": 128,
  "½": 129,
  "¾": 130,
  "¿": 131,
  "À": 132,
  "Á": 133,
  "Â": 134,
  "Ã": 135,
  "Ã¤": 7894,
  "Ã©": 3952,
  "Ä": 136,
  "Å": 137,
  "Æ": 138,
  "Ç": 139,
  "È": 140,
  "É": 141,
  "Ê": 142,
  "Ë": 143,
  "Ì": 144,
  "Í": 145,
  "Î": 146,
  "Ï": 147,
  "Ð": 148,
  "Ñ": 149,
  "Ò": 150,
  "Ó": 151,
  "Ô": 152,
  "Õ": 153,
  "Ö": 154,
  "×": 155,
  "Ø": 156,
  "Ù": 157,
  "Ú": 158,
  "Û": 159,
  "Ü": 160,
  "Ý": 161,
  "Þ": 162,
  "ß": 163,
  "à": 164,
  "á": 165,
  "â": 166,
  "âĢ": 473,
  "âĢĶ": 7552,
  "âĢĻ": 515,
  "âĢĿ": 1655,
  "âĢĿ.": 7754,
  "ã": 167,
  "ãģ": 7514,
  "ä": 168,
  "å": 169,
  "æ": 170,
  "ç": 171,
  "è": 172,
  "é": 173,
  "ê": 174,
  "ë": 175,
  "ì": 176,
  "í": 177,
  "î": 178,
  "ï": 179,
  "ï¸": 7383,
  "ï¸ı": 7390,
  "ð": 180,
  "ðŁ": 1595,
  "ðŁĺ": 4937,
  "ñ": 181,
  "ò": 182,
  "ó": 183,
  "ô": 184,
  "õ": 185,
  "ö": 186,
  "÷": 187,
  "ø": 188,
  "ù": 189,
  "ú": 190,
  "û": 191,
  "ü": 192,
  "ý": 193,
  "þ": 194,
  "ÿ": 195,
  "Ā": 196,
  "ā": 197,
  "Ă": 198,
  "ă": 199,
  "Ą": 200,
  "ą": 201,
  "Ć": 202,
  "ć": 203,
  "Ĉ": 204,
  "ĉ": 205,
  "Ċ": 206,
  "ċ": 207,
  "Č": 208,
  "č": 209,
  "Ď": 210,
  "ď": 211,
  "Đ": 212,
  "đ": 213,
  "Ē": 214,
  "ē": 215,
  "Ĕ": 216,
  "ĕ": 217,
  "Ė": 218,
  "ė": 219,
  "Ę": 220,
  "ę": 221,
  "Ě": 222,
  "ě": 223,
  "Ĝ": 224,
  "ĝ": 225,
  "Ğ": 226,
  "ğ": 227,
  "Ġ": 228,
  "Ġ!": 5623,
  "Ġ\"": 472,
  "Ġ#": 2663,
  "Ġ$": 952,
  "Ġ%": 7951,
  "Ġ&": 1696,
  "Ġ&#": 3919,
  "Ġ'": 1069,
  "Ġ(": 456,
  "Ġ)": 6018,
  "Ġ*": 605,
  "Ġ**": 1420,
  "Ġ***": 7274,
  "Ġ+": 1846,
  "Ġ,": 2755,
  "Ġ-": 652,
  "Ġ--": 3101,
  "Ġ->": 6056,
  "Ġ.": 2017,
  "Ġ..": 7443,
  "Ġ...": 2743,
  "Ġ/": 1187,
  "Ġ0": 2176,
  "Ġ1": 497,
  "Ġ10": 1065,
  "Ġ100": 1364,
  "Ġ1000": 5257,
  "Ġ1080": 6807,
  "Ġ11": 2975,
  "Ġ12": 2094,
  "Ġ120": 7497,
  "Ġ13": 3407,
  "Ġ14": 2911,
  "Ġ15": 1993,
  "Ġ150": 6348,
  "Ġ16": 2820,
  "Ġ17": 3792,
  "Ġ18": 2605,
  "Ġ19": 2202,
  "Ġ199": 7631,
  "Ġ2": 537,
  "Ġ20": 1070,
  "Ġ200": 2446,
  "Ġ2000": 6633,
  "Ġ201": 1877,
  "Ġ2012": 7836,
  "Ġ2013": 7952,
  "Ġ2014": 6933,
  "Ġ2015": 6776,
  "Ġ2016": 5620,
  "Ġ2017": 6945,
  "Ġ2018": 7267,
  "Ġ21": 4906,
  "Ġ22": 5169,
  "Ġ23": 6196,
  "Ġ24": 3460,
  "Ġ25": 2838,
  "Ġ250": 7854,
  "Ġ26": 6219,
  "Ġ27": 6929,
  "Ġ28": 6509,
  "Ġ3": 647,
  "Ġ30": 1744,
  "Ġ300": 4911,
  "Ġ31": 6156,
  "Ġ32": 6548,
  "Ġ35": 5230,
  "Ġ36": 7786,
  "Ġ4": 788,
  "Ġ40": 2523,
  "Ġ400": 6430,
  "Ġ45": 5217,
  "Ġ5": 781,
  "Ġ50": 1984,
  "Ġ500": 4586,
  "Ġ6": 1023,
  "Ġ60": 2947,
  "Ġ7": 1236,
  "Ġ70": 4126,
  "Ġ75": 6070,
  "Ġ8": 1226,
  "Ġ80": 3404,
  "Ġ9": 1207,
  "Ġ90": 2875,
  "Ġ95": 7779,
  "Ġ99": 4720,
  "Ġ:": 833,
  "Ġ:(": 2376,
  "Ġ:)": 1393,
  "Ġ:-": 6260,
  "Ġ:/": 4210,
  "Ġ;": 2991,
  "Ġ;)": 3827,
  "Ġ<": 4440,
  "Ġ=": 2047,
  "Ġ>": 1464,
  "Ġ?": 2453,
  "Ġ@": 6144,
  "ĠA": 349,
  "ĠAA": 7763,
  "ĠAB": 6239,
  "ĠAC": 4354,
  "ĠAD": 3980,
  "ĠAF": 7312,
  "ĠAI": 5664,
  "ĠAL": 5889,
  "ĠALL": 4972,
  "ĠAM": 3535,
  "ĠAMA": 7522,
  "ĠAMD": 7897,
  "ĠAN": 2574,
  "ĠAND": 3543,
  "ĠANY": 6738,
  "ĠAP": 4604,
  "ĠAR": 5619,
  "ĠARE": 6284,
  "ĠAS": 4410,
  "ĠAT": 4248,
  "ĠAb": 3894,
  "ĠAbout": 6462,
  "ĠAbs": 5702,
  "ĠAbsolut": 6221,
  "ĠAbsolutely": 6765,
  "ĠAc": 6130,
  "ĠAcc": 6004,
  "ĠAct": 3023,
  "ĠActually": 3819,
  "ĠAd": 2558,
  "ĠAdam": 7908,
  "ĠAdd": 4295,
  "ĠAf": 4412,
  "ĠAfric": 5391,
  "ĠAfter": 2316,
  "ĠAg": 2802,
  "ĠAgain": 4530,
  "ĠAgreed": 6438,
  "ĠAh": 3963,
  "ĠAir": 5404,
  "ĠAl": 802,
  "ĠAlex": 6388,
  "ĠAll": 1379,
  "ĠAlmost": 6665,
  "ĠAlright": 6790,
  "ĠAlso": 1044,
  "ĠAlthough": 4376,
  "ĠAlways": 6114,
  "ĠAm": 2046,
  "ĠAmaz": 4164,
  "ĠAmazon": 5019,
  "ĠAmeric": 1331,
  "ĠAmerica": 2520,
  "ĠAmerican": 2227,
  "ĠAmericans": 3784,
  "ĠAn": 1693,
  "ĠAnd": 691,
  "ĠAndroid": 5946,
  "ĠAnge": 7704,
  "ĠAnother": 4478,
  "ĠAnt": 4823,
  "ĠAny": 1422,
  "ĠAnyone": 3636,
  "ĠAnything": 6202,
  "ĠAnyway": 5150,
  "ĠApp": 2395,
  "ĠApparently": 4996,
  "ĠApple": 3925,
  "ĠAr": 1640,
  "ĠAre": 1586,
  "ĠArt": 6478,
  "ĠAs": 988,
  "ĠAsian": 6567,
  "ĠAsk": 7472,
  "ĠAss": 3981,
  "ĠAt": 1413,
  "ĠAtl": 7494,
  "ĠAtt": 7074,
  "ĠAust": 3296,
  "ĠAustral": 4006,
  "ĠAustralia": 4929,
  "ĠAv": 7226,
  "ĠAw": 4022,
  "ĠAwesome": 6112,
  "ĠB": 392,
  "ĠBB": 5056,
  "ĠBC": 7310,
  "ĠBE": 6213,
  "ĠBF": 6407,
  "ĠBL": 6939,
  "ĠBR": 7493,
  "ĠBS": 6320,
  "ĠBUT": 7102,
  "ĠBack": 5520,
  "ĠBad": 6053,
  "ĠBal": 7603,
  "ĠBall": 6489,
  "ĠBar": 4273,
  "ĠBas": 3750,
  "ĠBasically": 4244,
  "ĠBat": 3524,
  "ĠBatman": 6355,
  "ĠBattle": 6007,
  "ĠBay": 6089,
  "ĠBe": 1539,
  "ĠBecause": 1683,
  "ĠBeen": 7034,
  "ĠBefore": 5535,
  "ĠBeing": 4024,
  "ĠBel": 5570,
  "ĠBell": 6914,
  "ĠBen": 4932,
  "ĠBern": 4436,
  "ĠBernie": 4873,
  "ĠBesides": 7117,
  "ĠBest": 4009,
  "ĠBet": 3574,
  "ĠBetter": 6065,
  "ĠBig": 3781,
  "ĠBill": 5951,
  "ĠBit": 5838,
  "ĠBitcoin": 7936,
  "ĠBl": 1573,
  "ĠBlack": 3264,
  "ĠBlizzard": 7479,
  "ĠBlood": 6618,
  "ĠBlue": 6217,
  "ĠBo": 5107,
  "ĠBob": 7140,
  "ĠBoston": 7617,
  "ĠBoth": 3986,
  "ĠBow": 7056,
  "ĠBoy": 7391,
  "ĠBr": 1604,
  "ĠBra": 4668,
  "ĠBre": 4960,
  "ĠBrit": 3988,
  "ĠBritish": 5447,
  "ĠBro": 4240,
  "ĠBrown": 5929,
  "ĠBull": 7209,
  "ĠBur": 6321,
  "ĠBush": 7784,
  "ĠBut": 688,
  "ĠBuy": 7152,
  "ĠBy": 3134,
  "ĠC": 406,
  "ĠCA": 7132,
  "ĠCAN": 6984,
  "ĠCB": 6523,
  "ĠCC": 5452,
  "ĠCD": 6711,
  "ĠCH": 6365,
  "ĠCL": 5832,
  "ĠCPU": 5701,
  "ĠCS": 4696,
  "ĠCal": 3494,
  "ĠCalifornia": 5596,
  "ĠCall": 4984,
  "ĠCan": 1140,
  "ĠCanad": 2418,
  "ĠCanada": 3306,
  "ĠCanadian": 5213,
  "ĠCap": 6208,
  "ĠCar": 3435,
  "ĠCat": 6664,
  "ĠCatholic": 7867,
  "ĠCent": 6142,
  "ĠCh": 1086,
  "ĠCha": 2894,
  "ĠChamp": 7576,
  "ĠChan": 6397,
  "ĠChar": 4109,
  "ĠChe": 2637,
  "ĠCheck": 5299,
  "ĠChicago": 6961,
  "ĠChina": 3830,
  "ĠChinese": 4611,
  "ĠChris": 7386,
  "ĠChrist": 2123,
  "ĠChristian": 4129,
  "ĠChristians": 7401,
  "ĠChristmas": 5044,
  "ĠCity": 5203,
  "ĠCl": 2120,
  "ĠClass": 7647,
  "ĠCle": 4370,
  "ĠClinton": 4988,
  "ĠCo": 3662,
  "ĠCol": 3811,
  "ĠColl": 6328,
  "ĠCom": 2713,
  "ĠCome": 5611,
  "ĠComm": 4662,
  "ĠComp": 5994,
  "ĠCon": 2818,
  "ĠCong": 4090,
  "ĠCongrats": 7252,
  "ĠCongress": 7991,
  "ĠCons": 4229,
  "ĠConsidering": 7580,
  "ĠCont": 5025,
  "ĠCool": 6117,
  "ĠCor": 4375,
  "ĠCould": 3055,
  "ĠCr": 4372,
  "ĠCra": 6818,
  "ĠCru": 7781,
  "ĠCry": 7732,
  "ĠCur": 4115,
  "ĠCurrent": 7115,
  "ĠCy": 7949,
  "ĠD": 417,
  "ĠDA": 7893,
  "ĠDC": 5027,
  "ĠDE": 6995,
  "ĠDLC": 5005,
  "ĠDM": 5519,
  "ĠDN": 6123,
  "ĠDO": 4363,
  "ĠDPS": 6986,
  "ĠDS": 5767,
  "ĠDa": 6561,
  "ĠDad": 7737,
  "ĠDam": 7815,
  "ĠDamn": 3649,
  "ĠDan": 4754,
  "ĠDark": 4078,
  "ĠDav": 5396,
  "ĠDavid": 7376,
  "ĠDay": 4885,
  "ĠDe": 2186,
  "ĠDead": 5908,
  "ĠDeath": 6083,
  "ĠDec": 5222,
  "ĠDef": 3427,
  "ĠDefinitely": 4971,
  "ĠDel": 6999,
  "ĠDem": 3165,
  "ĠDemocr": 4114,
  "ĠDemocrats": 6271,
  "ĠDen": 6580,
  "ĠDep": 3727,
  "ĠDepends": 7031,
  "ĠDes": 5141,
  "ĠDest": 5984,
  "ĠDestiny": 7251,
  "ĠDev": 7197,
  "ĠDi": 6826,
  "ĠDid": 1700,
  "ĠDidn": 4438,
  "ĠDis": 3439,
  "ĠDisney": 6871,
  "ĠDo": 946,
  "ĠDoes": 1856,
  "ĠDoesn": 4258,
  "ĠDon": 1357,
  "ĠDonald": 7558,
  "ĠDown": 5927,
  "ĠDr": 3791,
  "ĠDra": 3573,
  "ĠDragon": 5414,
  "ĠDude": 3882,
  "ĠDun": 7158,
  "ĠE": 477,
  "ĠEA": 7072,
  "ĠED": 2228,
  "ĠEDIT": 2435,
  "ĠES": 5293,
  "ĠEU": 3719,
  "ĠEV": 7511,
  "ĠEVER": 5311,
  "ĠEVERY": 6468,
  "ĠEX": 6702,
  "ĠEach": 7747,
  "ĠEarth": 5127,
  "ĠEast": 4993,
  "ĠEd": 5208,
  "ĠEdit": 1220,
  "ĠEh": 7017,
  "ĠEither": 4191,
  "ĠEl": 4285,
  "ĠEm": 5673,
  "ĠEmp": 6608,
  "ĠEn": 3655,
  "ĠEnd": 6425,
  "ĠEng": 2343,
  "ĠEngland": 5858,
  "ĠEnglish": 3138,
  "ĠEp": 7293,
  "ĠEsp": 3569,
  "ĠEspecially": 3764,
  "ĠEurope": 2923,
  "ĠEuropean": 6312,
  "ĠEv": 5489,
  "ĠEven": 1756,
  "ĠEvent": 7540,
  "ĠEver": 6436,
  "ĠEvery": 1605,
  "ĠEveryone": 3170,
  "ĠEverything": 4723,
  "ĠEx": 1786,
  "ĠExactly": 5292,
  "ĠExcept": 4293,
  "ĠF": 484,
  "ĠFA": 6612,
  "ĠFB": 5840,
  "ĠFC": 7003,
  "ĠFF": 6515,
  "ĠFO": 7939,
  "ĠFOR": 6356,
  "ĠFPS": 7377,
  "ĠFU": 3521,
  "ĠFUCK": 4118,
  "ĠFUCKING": 7187,
  "ĠFace": 4159,
  "ĠFacebook": 4557,
  "ĠFair": 7358,
  "ĠFall": 5500,
  "ĠFallout": 7632,
  "ĠFar": 7033,
  "ĠFe": 4059,
  "ĠFed": 7528,
  "ĠFeel": 7972,
  "ĠFin": 3881,
  "ĠFinally": 6772,
  "ĠFind": 7307,
  "ĠFire": 4693,
  "ĠFirst": 2801,
  "ĠFl": 2739,
  "ĠFlorida": 6759,
  "ĠFor": 1182,
  "ĠForce": 7575,
  "ĠFox": 6333,
  "ĠFr": 1687,
  "ĠFrance": 6470,
  "ĠFrank": 6066,
  "ĠFree": 6934,
  "ĠFrench": 5560,
  "ĠFriday": 6008,
  "ĠFrom": 2925,
  "ĠFuck": 2459,
  "ĠFucking": 5600,
  "ĠFun": 4760,
  "ĠFunny": 7553,
  "ĠG": 485,
  "ĠGM": 6109,
  "ĠGO": 6385,
  "ĠGOP": 7212,
  "ĠGPU": 6729,
  "ĠGT": 4329,
  "ĠGame": 4710,
  "ĠGe": 4343,
  "ĠGen": 3385,
  "ĠGeorge": 7734,
  "ĠGerman": 3301,
  "ĠGermany": 4907,
  "ĠGet": 2475,
  "ĠGetting": 6247,
  "ĠGive": 5350,
  "ĠGl": 3936,
  "ĠGlad": 6337,
  "ĠGo": 1982,
  "ĠGod": 1921,
  "ĠGoing": 6584,
  "ĠGold": 4884,
  "ĠGood": 1858,
  "ĠGoogle": 3374,
  "ĠGot": 3344,
  "ĠGr": 2635,
  "ĠGra": 7271,
  "ĠGrand": 7335,
  "ĠGreat": 3053,
  "ĠGreen": 5656,
  "ĠGu": 2509,
  "ĠGuess": 6447,
  "ĠGun": 7490,
  "ĠGuys": 7924,
  "ĠH": 391,
  "ĠHA": 3840,
  "ĠHD": 5723,
  "ĠHE": 6392,
  "ĠHP": 5686,
  "ĠHR": 6924,
  "ĠHU": 7792,
  "ĠHa": 2036,
  "ĠHad": 4806,
  "ĠHaha": 3522,
  "ĠHal": 3855,
  "ĠHalf": 6379,
  "ĠHalo": 7092,
  "ĠHam": 7298,
  "ĠHapp": 5944,
  "ĠHappy": 7843,
  "ĠHar": 3850,
  "ĠHard": 4594,
  "ĠHarry": 7362,
  "ĠHas": 4816,
  "ĠHave": 2219,
  "ĠHaven": 7627,
  "ĠHaving": 4428,
  "ĠHaw": 7208,
  "ĠHe": 645,
  "ĠHel": 7019,
  "ĠHell": 3156,
  "ĠHello": 6950,
  "ĠHer": 3661,
  "ĠHere": 3292,
  "ĠHero": 7848,
  "ĠHey": 2675,
  "ĠHi": 4424,
  "ĠHigh": 5077,
  "ĠHill": 3681,
  "ĠHillary": 4459,
  "ĠHis": 2448,
  "ĠHit": 4948,
  "ĠHitler": 6750,
  "ĠHmm": 5043,
  "ĠHoly": 4161,
  "ĠHonest": 2673,
  "ĠHonestly": 2841,
  "ĠHope": 2786,
  "ĠHopefully": 4192,
  "ĠHor": 7375,
  "ĠHot": 7718,
  "ĠHouse": 5648,
  "ĠHow": 855,
  "ĠHowever": 2177,
  "ĠHun": 6163,
  "ĠHy": 5770,
  "ĠI": 281,
  "ĠID": 4799,
  "ĠIF": 7435,
  "ĠIG": 6979,
  "ĠII": 6862,
  "ĠIM": 6806,
  "ĠIMO": 3974,
  "ĠIN": 3725,
  "ĠIP": 5424,
  "ĠIS": 2566,
  "ĠISIS": 7581,
  "ĠIT": 3100,
  "ĠIV": 6084,
  "ĠIce": 7253,
  "ĠId": 3776,
  "ĠIdk": 5700,
  "ĠIf": 576,
  "ĠIll": 6140,
  "ĠIm": 2024,
  "ĠImagine": 4619,
  "ĠImp": 7360,
  "ĠIn": 820,
  "ĠInc": 7287,
  "ĠInd": 2891,
  "ĠIndia": 7051,
  "ĠIndian": 6434,
  "ĠInf": 6544,
  "ĠInst": 3513,
  "ĠInstead": 4745,
  "ĠInt": 3437,
  "ĠInterest": 5049,
  "ĠInteresting": 5864,
  "ĠIntern": 5712,
  "ĠInternet": 6887,
  "ĠIr": 6477,
  "ĠIre": 7973,
  "ĠIron": 5790,
  "ĠIs": 976,
  "ĠIslam": 5683,
  "ĠIsn": 4283,
  "ĠIsrael": 5523,
  "ĠIt": 452,
  "ĠIts": 2003,
  "ĠIve": 6840,
  "ĠJ": 587,
  "ĠJack": 4798,
  "ĠJames": 6690,
  "ĠJan": 6528,
  "ĠJapan": 3266,
  "ĠJapanese": 4970,
  "ĠJe": 5369,
  "ĠJer": 6845,
  "ĠJesus": 3467,
  "ĠJew": 5050,
  "ĠJim": 5568,
  "ĠJo": 2214,
  "ĠJoe": 6712,
  "ĠJohn": 3501,
  "ĠJon": 5593,
  "ĠJones": 6931,
  "ĠJud": 7721,
  "ĠJust": 1021,
  "ĠK": 680,
  "ĠKe": 2561,
  "ĠKeep": 3732,
  "ĠKen": 7424,
  "ĠKind": 4820,
  "ĠKinda": 7717,
  "ĠKing": 4135,
  "ĠKn": 6816,
  "ĠKnight": 7347,
  "ĠKo": 6701,
  "ĠKore": 4196,
  "ĠKorea": 6238,
  "ĠKorean": 7899,
  "ĠL": 493,
  "ĠLA": 5325,
  "ĠLI": 7789,
  "ĠLO": 6444,
  "ĠLOL": 5681,
  "ĠLOT": 7043,
  "ĠLS": 7243,
  "ĠLa": 7367,
  "ĠLast": 3955,
  "ĠLaw": 7491,
  "ĠLe": 1778,
  "ĠLeague": 5319,
  "ĠLeg": 5418,
  "ĠLegend": 7568,
  "ĠLet": 2183,
  "ĠLi": 3614,
  "ĠLife": 5850,
  "ĠLight": 5902,
  "ĠLike": 1720,
  "ĠLin": 6801,
  "ĠLit": 4338,
  "ĠLiterally": 6762,
  "ĠLo": 4728,
  "ĠLol": 2933,
  "ĠLondon": 7138,
  "ĠLong": 6495,
  "ĠLook": 3472,
  "ĠLooking": 6324,
  "ĠLooks": 3638,
  "ĠLord": 6783,
  "ĠLots": 6316,
  "ĠLou": 7846,
  "ĠLove": 4086,
  "ĠLuc": 5943,
  "ĠLuck": 5916,
  "ĠM": 397,
  "ĠMA": 6562,
  "ĠMC": 6421,
  "ĠME": 4848,
  "ĠML": 5919,
  "ĠMM": 6902,
  "ĠMO": 5986,
  "ĠMP": 7128,
  "ĠMS": 4829,
  "ĠMY": 6289,
  "ĠMa": 5251,
  "ĠMac": 4564,
  "ĠMad": 5015,
  "ĠMag": 4910,
  "ĠMagic": 7750,
  "ĠMake": 4041,
  "ĠMakes": 6288,
  "ĠMal": 5962,
  "ĠMan": 2160,
  "ĠMany": 4426,
  "ĠMar": 2290,
  "ĠMario": 6559,
  "ĠMark": 6039,
  "ĠMars": 7863,
  "ĠMart": 6185,
  "ĠMass": 7411,
  "ĠMaster": 7601,
  "ĠMat": 6199,
  "ĠMatt": 7774,
  "ĠMax": 6722,
  "ĠMay": 1279,
  "ĠMaybe": 1397,
  "ĠMc": 3012,
  "ĠMcC": 6571,
  "ĠMcDonald": 7720,
  "ĠMe": 2365,
  "ĠMean": 7475,
  "ĠMeanwhile": 7832,
  "ĠMed": 5268,
  "ĠMel": 6920,
  "ĠMen": 6865,
  "ĠMer": 6116,
  "ĠMess": 7984,
  "ĠMet": 4941,
  "ĠMexic": 4677,
  "ĠMexico": 7771,
  "ĠMic": 3355,
  "ĠMich": 7616,
  "ĠMichael": 6293,
  "ĠMicro": 5869,
  "ĠMicrosoft": 6471,
  "ĠMid": 5238,
  "ĠMight": 5341,
  "ĠMike": 7010,
  "ĠMil": 6281,
  "ĠMin": 3977,
  "ĠMine": 6486,
  "ĠMiss": 6451,
  "ĠMo": 4871,
  "ĠMod": 5205,
  "ĠMon": 4039,
  "ĠMonday": 7499,
  "ĠMont": 7907,
  "ĠMor": 4887,
  "ĠMore": 3321,
  "ĠMost": 1974,
  "ĠMr": 5501,
  "ĠMur": 7133,
  "ĠMus": 3706,
  "ĠMuslim": 4772,
  "ĠMuslims": 7512,
  "ĠMy": 863,
  "ĠN": 432,
  "ĠNA": 4714,
  "ĠNBA": 6760,
  "ĠNC": 6870,
  "ĠNE": 4529,
  "ĠNFL": 5199,
  "ĠNH": 7342,
  "ĠNO": 5239,
  "ĠNOT": 3189,
  "ĠNS": 7206,
  "ĠNY": 4580,
  "ĠNYC": 7504,
  "ĠNah": 4517,
  "ĠNaz": 5587,
  "ĠNe": 2370,
  "ĠNeed": 7549,
  "ĠNet": 4234,
  "ĠNetflix": 6287,
  "ĠNever": 3254,
  "ĠNew": 2310,
  "ĠNext": 5634,
  "ĠNice": 3490,
  "ĠNight": 6726,
  "ĠNintendo": 5606,
  "ĠNo": 880,
  "ĠNobody": 4870,
  "ĠNone": 6258,
  "ĠNope": 4504,
  "ĠNor": 6736,
  "ĠNorth": 4296,
  "ĠNot": 902,
  "ĠNote": 7333,
  "ĠNothing": 3630,
  "ĠNow": 1519,
  "ĠO": 471,
  "ĠOC": 7462,
  "ĠOF": 4905,
  "ĠOK": 4187,
  "ĠON": 3950,
  "ĠOP": 1796,
  "ĠOR": 7174,
  "ĠOS": 5160,
  "ĠOb": 2278,
  "ĠObama": 3678,
  "ĠObviously": 4732,
  "ĠOct": 7505,
  "ĠOf": 2708,
  "ĠOff": 6145,
  "ĠOh": 1395,
  "ĠOk": 2286,
  "ĠOkay": 4017,
  "ĠOld": 6306,
  "ĠOn": 1510,
  "ĠOnce": 3274,
  "ĠOne": 1632,
  "ĠOnly": 2798,
  "ĠOp": 5270,
  "ĠOr": 1216,
  "ĠOther": 2981,
  "ĠOtherwise": 5333,
  "ĠOur": 3984,
  "ĠOut": 4487,
  "ĠOver": 3815,
  "ĠP": 440,
  "ĠPA": 7868,
  "ĠPC": 2373,
  "ĠPL": 5517,
  "ĠPM": 4455,
  "ĠPO": 7822,
  "ĠPR": 5403,
  "ĠPS": 2544,
  "ĠPal": 5329,
  "ĠPar": 5033,
  "ĠPark": 6177,
  "ĠPart": 4461,
  "ĠPat": 4758,
  "ĠPaul": 5538,
  "ĠPay": 6715,
  "ĠPe": 5549,
  "ĠPeople": 1629,
  "ĠPer": 2888,
  "ĠPerhaps": 4957,
  "ĠPerson": 3620,
  "ĠPersonally": 4286,
  "ĠPet": 5249,
  "ĠPh": 3016,
  "ĠPl": 1643,
  "ĠPlay": 3624,
  "ĠPlease": 2742,
  "ĠPlus": 3262,
  "ĠPo": 5097,
  "ĠPoke": 5032,
  "ĠPokemon": 5473,
  "ĠPol": 4582,
  "ĠPort": 5795,
  "ĠPost": 6907,
  "ĠPot": 7773,
  "ĠPower": 6645,
  "ĠPr": 2616,
  "ĠPre": 2701,
  "ĠPres": 4566,
  "ĠPresident": 5431,
  "ĠPretty": 3527,
  "ĠPri": 7890,
  "ĠPro": 1766,
  "ĠProbably": 3255,
  "ĠProt": 7694,
  "ĠPut": 4575,
  "ĠPv": 5283,
  "ĠPvP": 6922,
  "ĠQ": 1496,
  "ĠQB": 4694,
  "ĠQu": 2824,
  "ĠQue": 6480,
  "ĠQuest": 7414,
  "ĠR": 502,
  "ĠRB": 6926,
  "ĠRE": 6786,
  "ĠREA": 5512,
  "ĠREALLY": 7381,
  "ĠRe": 1455,
  "ĠRead": 5462,
  "ĠReal": 5457,
  "ĠReally": 2999,
  "ĠRec": 5438,
  "ĠRed": 1857,
  "ĠReddit": 2445,
  "ĠReg": 4531,
  "ĠRegard": 6681,
  "ĠRegardless": 7768,
  "ĠRel": 6879,
  "ĠRem": 3257,
  "ĠRemember": 5058,
  "ĠRep": 2649,
  "ĠRepublic": 3462,
  "ĠRepublican": 6049,
  "ĠRepublicans": 5717,
  "ĠRes": 5103,
  "ĠRick": 7976,
  "ĠRight": 3276,
  "ĠRo": 4061,
  "ĠRob": 5088,
  "ĠRock": 4841,
  "ĠRod": 7869,
  "ĠRom": 6975,
  "ĠRoman": 7569,
  "ĠRon": 7250,
  "ĠRun": 6273,
  "ĠRuss": 2619,
  "ĠRussia": 3886,
  "ĠRussian": 5362,
  "ĠRy": 5039,
  "ĠRyan": 7629,
  "ĠS": 353,
  "ĠSA": 6660,
  "ĠSC": 5496,
  "ĠSF": 7592,
  "ĠSH": 4776,
  "ĠSK": 7202,
  "ĠSM": 6391,
  "ĠSO": 3135,
  "ĠSP": 5737,
  "ĠSS": 4185,
  "ĠST": 3471,
  "ĠSU": 6088,
  "ĠSad": 5260,
  "ĠSadly": 7849,
  "ĠSal": 7273,
  "ĠSam": 5502,
  "ĠSame": 3072,
  "ĠSamsung": 7927,
  "ĠSan": 5237,
  "ĠSand": 4590,
  "ĠSanders": 6429,
  "ĠSaturday": 7318,
  "ĠSay": 7573,
  "ĠSc": 2236,
  "ĠSch": 6496,
  "ĠScott": 7838,
  "ĠSe": 1955,
  "ĠSeason": 7103,
  "ĠSec": 3739,
  "ĠSecond": 4928,
  "ĠSee": 3849,
  "ĠSeems": 3930,
  "ĠSen": 6895,
  "ĠSer": 2430,
  "ĠSeriously": 3286,
  "ĠSh": 1434,
  "ĠSha": 2950,
  "ĠShe": 1117,
  "ĠShit": 5061,
  "ĠShould": 3563,
  "ĠShow": 7727,
  "ĠSil": 5582,
  "ĠSim": 3824,
  "ĠSince": 3199,
  "ĠSing": 7987,
  "ĠSk": 5803,
  "ĠSky": 4551,
  "ĠSl": 5351,
  "ĠSm": 3237,
  "ĠSmith": 7151,
  "ĠSn": 5419,
  "ĠSo": 713,
  "ĠSol": 5680,
  "ĠSome": 1552,
  "ĠSomeone": 3915,
  "ĠSomet": 2578,
  "ĠSomething": 4683,
  "ĠSometimes": 3577,
  "ĠSony": 7005,
  "ĠSorry": 2392,
  "ĠSou": 5846,
  "ĠSouls": 7898,
  "ĠSounds": 3684,
  "ĠSource": 5444,
  "ĠSouth": 4433,
  "ĠSp": 1548,
  "ĠSpace": 7480,
  "ĠSpanish": 7446,
  "ĠSpe": 5433,
  "ĠSpec": 7316,
  "ĠSpr": 7785,
  "ĠSqu": 7134,
  "ĠSt": 790,
  "ĠStar": 3425,
  "ĠStart": 5604,
  "ĠState": 5275,
  "ĠStates": 5865,
  "ĠSte": 2949,
  "ĠSteam": 5618,
  "ĠStep": 5425,
  "ĠStill": 2930,
  "ĠStop": 4935,
  "ĠSu": 2363,
  "ĠSub": 5806,
  "ĠSuch": 7433,
  "ĠSum": 7646,
  "ĠSun": 6014,
  "ĠSund": 6035,
  "ĠSunday": 6619,
  "ĠSuper": 3217,
  "ĠSupp": 7380,
  "ĠSur": 5783,
  "ĠSure": 2636,
  "ĠSw": 2936,
  "ĠSy": 4243,
  "ĠT": 327,
  "ĠTB": 7319,
  "ĠTD": 7276,
  "ĠTH": 1509,
  "ĠTHAT": 4814,
  "ĠTHE": 2348,
  "ĠTHIS": 5760,
  "ĠTIL": 7196,
  "ĠTL": 4976,
  "ĠTO": 4045,
  "ĠTR": 6503,
  "ĠTS": 4989,
  "ĠTSM": 7806,
  "ĠTV": 2895,
  "ĠTW": 8002,
  "ĠTake": 4147,
  "ĠTal": 7359,
  "ĠTar": 7819,
  "ĠTe": 3602,
  "ĠTeam": 7180,
  "ĠTech": 6381,
  "ĠTell": 4918,
  "ĠTer": 5574,
  "ĠTex": 4470,
  "ĠTexas": 5089,
  "ĠTh": 616,
  "ĠThan": 1144,
  "ĠThank": 2203,
  "ĠThanks": 1482,
  "ĠThat": 649,
  "ĠThats": 4774,
  "ĠThe": 384,
  "ĠTheir": 4058,
  "ĠThen": 1437,
  "ĠThere": 840,
  "ĠThese": 2633,
  "ĠThey": 689,
  "ĠThing": 5569,
  "ĠThings": 6966,
  "ĠThink": 4629,
  "ĠThis": 678,
  "ĠThose": 2883,
  "ĠThough": 5065,
  "ĠTim": 5646,
  "ĠTime": 4866,
  "ĠTit": 5288,
  "ĠTitan": 7804,
  "ĠTo": 1497,
  "ĠTod": 6649,
  "ĠToday": 7881,
  "ĠTom": 5534,
  "ĠToo": 4644,
  "ĠTop": 6563,
  "ĠTor": 5193,
  "ĠTot": 5552,
  "ĠTr": 1189,
  "ĠTra": 5486,
  "ĠTrans": 7269,
  "ĠTre": 7023,
  "ĠTri": 6437,
  "ĠTrue": 5505,
  "ĠTrump": 1690,
  "ĠTry": 3137,
  "ĠTur": 5151,
  "ĠTurn": 5488,
  "ĠTw": 2770,
  "ĠTwitter": 7282,
  "ĠTwo": 4945,
  "ĠTy": 4197,
  "ĠU": 648,
  "ĠUK": 3247,
  "ĠUN": 6796,
  "ĠUS": 1298,
  "ĠUSA": 4925,
  "ĠUSB": 7444,
  "ĠUgh": 7448,
  "ĠUh": 7798,
  "ĠUlt": 5766,
  "ĠUn": 1399,
  "ĠUnder": 6313,
  "ĠUnfortunately": 4373,
  "ĠUni": 6474,
  "ĠUnited": 4636,
  "ĠUnless": 3618,
  "ĠUnt": 6370,
  "ĠUntil": 6773,
  "ĠUp": 4675,
  "ĠUs": 4615,
  "ĠUse": 5551,
  "ĠUsually": 6060,
  "ĠV": 799,
  "ĠVR": 6694,
  "ĠVal": 4849,
  "ĠVeg": 6614,
  "ĠVer": 7077,
  "ĠVery": 3756,
  "ĠW": 370,
  "ĠWE": 6991,
  "ĠWH": 3680,
  "ĠWR": 6184,
  "ĠWTF": 7341,
  "ĠWW": 4346,
  "ĠWait": 3114,
  "ĠWal": 3788,
  "ĠWall": 7515,
  "ĠWar": 2597,
  "ĠWars": 5301,
  "ĠWas": 2410,
  "ĠWashington": 7997,
  "ĠWat": 7254,
  "ĠWatch": 6590,
  "ĠWay": 6426,
  "ĠWe": 683,
  "ĠWel": 5442,
  "ĠWelcome": 7445,
  "ĠWell": 1262,
  "ĠWere": 7567,
  "ĠWest": 4510,
  "ĠWh": 749,
  "ĠWhat": 714,
  "ĠWhatever": 7636,
  "ĠWhe": 6374,
  "ĠWhen": 1145,
  "ĠWhere": 2354,
  "ĠWhether": 7871,
  "ĠWhich": 2334,
  "ĠWhile": 2750,
  "ĠWhite": 4509,
  "ĠWho": 2122,
  "ĠWhy": 1083,
  "ĠWii": 7547,
  "ĠWill": 2849,
  "ĠWind": 4044,
  "ĠWindows": 4782,
  "ĠWith": 2051,
  "ĠWithout": 6354,
  "ĠWo": 5177,
  "ĠWoW": 7606,
  "ĠWor": 2857,
  "ĠWorld": 4145,
  "ĠWould": 2119,
  "ĠWouldn": 6182,
  "ĠWow": 2867,
  "ĠWr": 7665,
  "ĠX": 1518,
  "ĠXbox": 5031,
  "ĠY": 442,
  "ĠYOU": 2763,
  "ĠYa": 7879,
  "ĠYea": 4858,
  "ĠYeah": 1167,
  "ĠYep": 4388,
  "ĠYes": 1445,
  "ĠYet": 6323,
  "ĠYork": 6210,
  "ĠYou": 553,
  "ĠYouT": 5094,
  "ĠYouTube": 5346,
  "ĠYour": 1852,
  "ĠYup": 5522,
  "ĠZ": 1639,
  "ĠZe": 6594,
  "Ġ[": 2454,
  "Ġ\\": 5003,
  "Ġ^": 4247,
  "Ġ^^": 3302,
  "Ġ^^^": 7471,
  "Ġ^^^^": 7613,
  "Ġ_": 6157,
  "Ġ`": 7083,
  "Ġa": 265,
  "Ġab": 405,
  "Ġaband": 6699,
  "Ġabilities": 5105,
  "Ġability": 2511,
  "Ġable": 1115,
  "Ġabortion": 6935,
  "Ġabout": 458,
  "Ġabove": 2411,
  "Ġabs": 1381,
  "Ġabsolut": 1631,
  "Ġabsolute": 4432,
  "Ġabsolutely": 1900,
  "Ġabsurd": 6134,
  "Ġabuse": 4368,
  "Ġac": 705,
  "Ġacadem": 7794,
  "Ġacc": 894,
  "Ġacce": 5836,
  "Ġaccent": 7339,
  "Ġaccept": 2251,
  "Ġacceptable": 6143,
  "Ġaccepted": 6001,
  "Ġaccess": 2403,
  "Ġaccident": 3619,
  "Ġaccidentally": 6298,
  "Ġaccom": 4734,
  "Ġaccompl": 5375,
  "Ġaccomplish": 7241,
  "Ġaccording": 4832,
  "Ġaccount": 1678,
  "Ġaccounts": 4735,
  "Ġaccur": 3429,
  "Ġaccurate": 4474,
  "Ġachie": 3851,
  "Ġachieve": 4669,
  "Ġacid": 7668,
  "Ġack": 5985,
  "Ġacknow": 6036,
  "Ġacqu": 6743,
  "Ġacross": 2582,
  "Ġact": 594,
  "Ġacting": 4055,
  "Ġaction": 3063,
  "Ġactions": 3911,
  "Ġactiv": 3275,
  "Ġactive": 4001,
  "Ġactively": 5958,
  "Ġactivity": 6626,
  "Ġactor": 7743,
  "Ġacts": 6598,
  "Ġactual": 1950,
  "Ġactually": 755,
  "Ġad": 633,
  "Ġadapt": 7317,
  "Ġadd": 1008,
  "Ġadded": 2852,
  "Ġaddict": 7126,
  "Ġadding": 4209,
  "Ġaddit": 4824,
  "Ġaddition": 5437,
  "Ġadditional": 5296,
  "Ġaddress": 3594,
  "Ġadds": 6086,
  "Ġadjust": 4560,
  "Ġadm": 6578,
  "Ġadmin": 5086,
  "Ġadmit": 3238,
  "Ġadmitted": 7703,
  "Ġadop": 4985,
  "Ġads": 6387,
  "Ġadult": 3313,
  "Ġadults": 6311,
  "Ġadv": 1314,
  "Ġadvance": 5833,
  "Ġadvanced": 7190,
  "Ġadvant": 3202,
  "Ġadvantage": 3491,
  "Ġadvent": 6780,
  "Ġadvert": 4701,
  "Ġadvice": 2560,
  "Ġadvoc": 6572,
  "Ġaf": 2753,
  "Ġaff": 1670,
  "Ġaffect": 3477,
  "Ġaffected": 7156,
  "Ġafford": 3017,
  "Ġafraid": 3738,
  "Ġafter": 745,
  "Ġafterwards": 6876,
  "Ġag": 578,
  "Ġagain": 764,
  "Ġagainst": 1148,
  "Ġage": 2216,
  "Ġagent": 7338,
  "Ġages": 7234,
  "Ġaggress": 4605,
  "Ġaggressive": 5988,
  "Ġago": 1358,
  "Ġagree": 1384,
  "Ġagreed": 6383,
  "Ġahead": 3397,
  "Ġaid": 7944,
  "Ġaim": 3892,
  "Ġain": 5808,
  "Ġair": 1970,
  "Ġal": 427,
  "Ġalbum": 3514,
  "Ġalcohol": 3966,
  "Ġalien": 7000,
  "Ġalive": 3939,
  "Ġall": 430,
  "Ġalleg": 7579,
  "Ġallow": 1677,
  "Ġallowed": 2414,
  "Ġallowing": 6100,
  "Ġallows": 4526,
  "Ġalmost": 1327,
  "Ġalone": 2245,
  "Ġalong": 2162,
  "Ġalot": 5612,
  "Ġalpha": 7850,
  "Ġalready": 1048,
  "Ġalright": 5868,
  "Ġalso": 682,
  "Ġalt": 4493,
  "Ġaltern": 3871,
  "Ġalternative": 5777,
  "Ġalthough": 3682,
  "Ġalways": 849,
  "Ġam": 632,
  "Ġamaz": 1701,
  "Ġamazing": 1874,
  "Ġamb": 6178,
  "Ġamer": 5526,
  "Ġammo": 6611,
  "Ġamong": 4133,
  "Ġamount": 1557,
  "Ġamounts": 6181,
  "Ġan": 351,
  "Ġanal": 3442,
  "Ġanalog": 7198,
  "Ġanalysis": 7891,
  "Ġand": 298,
  "Ġang": 3193,
  "Ġanger": 7364,
  "Ġangle": 6755,
  "Ġangry": 3998,
  "Ġanim": 2221,
  "Ġanimal": 4598,
  "Ġanimals": 4100,
  "Ġanimation": 7759,
  "Ġanime": 5125,
  "Ġann": 1776,
  "Ġannounce": 6761,
  "Ġannounced": 7352,
  "Ġannoy": 2470,
  "Ġannoyed": 7100,
  "Ġannoying": 3208,
  "Ġanother": 1053,
  "Ġansw": 1617,
  "Ġanswer": 1998,
  "Ġanswered": 7826,
  "Ġanswers": 5336,
  "Ġant": 2131,
  "Ġanti": 2858,
  "Ġanx": 4379,
  "Ġanxiety": 5076,
  "Ġany": 463,
  "Ġanybody": 4931,
  "Ġanymore": 2059,
  "Ġanyone": 1104,
  "Ġanything": 879,
  "Ġanytime": 7778,
  "Ġanyway": 2066,
  "Ġanyways": 4505,
  "Ġanywhere": 3109,
  "Ġap": 1830,
  "Ġapart": 2864,
  "Ġapartment": 5420,
  "Ġapolog": 4508,
  "Ġapologize": 7640,
  "Ġapp": 783,
  "Ġapparently": 3284,
  "Ġappeal": 5307,
  "Ġappear": 3582,
  "Ġappearance": 7837,
  "Ġappears": 5811,
  "Ġapple": 7354,
  "Ġapplic": 4607,
  "Ġapplication": 7388,
  "Ġapplied": 6704,
  "Ġapplies": 7340,
  "Ġapply": 3913,
  "Ġappoint": 7403,
  "Ġappreci": 2866,
  "Ġappreciate": 3564,
  "Ġappro": 2147,
  "Ġapproach": 4846,
  "Ġappropriate": 5781,
  "Ġapps": 5542,
  "Ġar": 570,
  "Ġarc": 5327,
  "Ġarch": 7278,
  "Ġare": 366,
  "Ġarea": 2030,
  "Ġareas": 3847,
  "Ġaren": 1231,
  "Ġarena": 7624,
  "Ġarg": 1503,
  "Ġargue": 3796,
  "Ġarguing": 6412,
  "Ġargument": 2581,
  "Ġarguments": 6131,
  "Ġarm": 1953,
  "Ġarmor": 3603,
  "Ġarms": 4856,
  "Ġarmy": 5132,
  "Ġaround": 837,
  "Ġarrest": 4764,
  "Ġarrested": 7079,
  "Ġarri": 5052,
  "Ġart": 1428,
  "Ġarticle": 2861,
  "Ġarticles": 7016,
  "Ġartist": 6037,
  "Ġartists": 7644,
  "Ġas": 371,
  "Ġaside": 4398,
  "Ġask": 1426,
  "Ġasked": 2041,
  "Ġasking": 2099,
  "Ġasks": 6654,
  "Ġasleep": 7425,
  "Ġaspect": 4193,
  "Ġaspects": 7719,
  "Ġass": 920,
  "Ġassass": 7351,
  "Ġassault": 5178,
  "Ġassh": 2732,
  "Ġasshole": 3486,
  "Ġassholes": 5731,
  "Ġassign": 6734,
  "Ġassist": 5147,
  "Ġassoci": 4778,
  "Ġassociated": 7610,
  "Ġassum": 1555,
  "Ġassume": 2473,
  "Ġassumed": 5677,
  "Ġassuming": 3803,
  "Ġast": 5980,
  "Ġat": 403,
  "Ġate": 6455,
  "Ġath": 5639,
  "Ġathe": 4533,
  "Ġatheist": 7260,
  "Ġathlet": 5813,
  "Ġatm": 5154,
  "Ġatt": 860,
  "Ġattached": 7060,
  "Ġattack": 1684,
  "Ġattacked": 7067,
  "Ġattacking": 6120,
  "Ġattacks": 4221,
  "Ġattempt": 3081,
  "Ġattend": 6946,
  "Ġattention": 2670,
  "Ġattitude": 4874,
  "Ġattract": 2921,
  "Ġattracted": 7412,
  "Ġattractive": 4992,
  "Ġaud": 3058,
  "Ġaudience": 5400,
  "Ġaudio": 6022,
  "Ġaut": 1514,
  "Ġauthor": 3927,
  "Ġauthority": 7932,
  "Ġauto": 4485,
  "Ġautom": 3205,
  "Ġautomatic": 7914,
  "Ġautomatically": 5358,
  "Ġav": 1436,
  "Ġavail": 2322,
  "Ġavailable": 2420,
  "Ġaverage": 2400,
  "Ġavoid": 2492,
  "Ġaw": 1080,
  "Ġaware": 2979,
  "Ġaway": 1094,
  "Ġawesome": 1942,
  "Ġawful": 3267,
  "Ġawhile": 6644,
  "Ġawkward": 4768,
  "Ġax": 6901,
  "Ġb": 275,
  "Ġbab": 2121,
  "Ġbabies": 6542,
  "Ġbaby": 2553,
  "Ġbac": 5277,
  "Ġback": 665,
  "Ġbackground": 4303,
  "Ġbackup": 7175,
  "Ġbackwards": 6908,
  "Ġbad": 810,
  "Ġbadass": 7895,
  "Ġbadly": 5607,
  "Ġbag": 2922,
  "Ġbags": 6721,
  "Ġbal": 2451,
  "Ġbalance": 3744,
  "Ġbalanced": 6186,
  "Ġball": 1944,
  "Ġballs": 4612,
  "Ġban": 1724,
  "Ġband": 3400,
  "Ġbang": 6232,
  "Ġbank": 3361,
  "Ġbanned": 3599,
  "Ġbar": 1868,
  "Ġbarely": 3610,
  "Ġbars": 6003,
  "Ġbas": 916,
  "Ġbase": 2275,
  "Ġbaseball": 7673,
  "Ġbased": 1795,
  "Ġbasic": 3204,
  "Ġbasically": 1688,
  "Ġbasis": 5226,
  "Ġbasket": 5979,
  "Ġbasketball": 7004,
  "Ġbast": 6417,
  "Ġbat": 1703,
  "Ġbath": 3982,
  "Ġbathroom": 4746,
  "Ġbatt": 6152,
  "Ġbattery": 4028,
  "Ġbattle": 3350,
  "Ġbattles": 7915,
  "Ġbc": 7920,
  "Ġbe": 310,
  "Ġbear": 4917,
  "Ġbeast": 6461,
  "Ġbeat": 2134,
  "Ġbeaten": 7726,
  "Ġbeating": 5910,
  "Ġbeats": 7942,
  "Ġbeaut": 2960,
  "Ġbeautiful": 3484,
  "Ġbec": 509,
  "Ġbecame": 3551,
  "Ġbecause": 534,
  "Ġbecom": 2548,
  "Ġbecome": 1859,
  "Ġbecomes": 3581,
  "Ġbecoming": 4492,
  "Ġbed": 2604,
  "Ġbeef": 7661,
  "Ġbeen": 635,
  "Ġbeer": 3567,
  "Ġbefore": 792,
  "Ġbegan": 7173,
  "Ġbegin": 2486,
  "Ġbeginning": 3832,
  "Ġbeh": 1907,
  "Ġbeha": 2702,
  "Ġbehav": 3282,
  "Ġbehavi": 7255,
  "Ġbehavior": 4063,
  "Ġbehind": 1954,
  "Ġbeing": 650,
  "Ġbel": 895,
  "Ġbelie": 999,
  "Ġbelief": 6162,
  "Ġbeliefs": 5765,
  "Ġbelieve": 1163,
  "Ġbelieved": 6996,
  "Ġbelieves": 7427,
  "Ġbell": 7543,
  "Ġbelong": 5323,
  "Ġbelow": 3726,
  "Ġbelt": 6408,
  "Ġben": 1815,
  "Ġbench": 5388,
  "Ġbenef": 2335,
  "Ġbenefit": 3665,
  "Ġbenefits": 4480,
  "Ġbesides": 4707,
  "Ġbest": 899,
  "Ġbet": 623,
  "Ġbeta": 5525,
  "Ġbetter": 721,
  "Ġbetween": 1300,
  "Ġbeyond": 3536,
  "Ġbi": 2462,
  "Ġbias": 6885,
  "Ġbiased": 7809,
  "Ġbig": 893,
  "Ġbigger": 2901,
  "Ġbiggest": 2851,
  "Ġbike": 3828,
  "Ġbill": 2324,
  "Ġbillion": 5079,
  "Ġbills": 6566,
  "Ġbird": 5443,
  "Ġbirth": 3300,
  "Ġbirthday": 5750,
  "Ġbit": 914,
  "Ġbitch": 3612,
  "Ġbitcoin": 7993,
  "Ġbite": 7216,
  "Ġbits": 7945,
  "Ġbitter": 7878,
  "Ġbl": 728,
  "Ġblack": 1563,
  "Ġblade": 7770,
  "Ġblah": 7801,
  "Ġblame": 3378,
  "Ġblank": 6422,
  "Ġblast": 6092,
  "Ġblat": 7947,
  "Ġble": 3500,
  "Ġbleed": 7586,
  "Ġblew": 7660,
  "Ġblind": 4253,
  "Ġblo": 3139,
  "Ġblock": 2878,
  "Ġblocks": 6655,
  "Ġblood": 2625,
  "Ġblow": 4019,
  "Ġblown": 7228,
  "Ġblue": 3002,
  "Ġbo": 1010,
  "Ġboard": 3094,
  "Ġboat": 5571,
  "Ġbod": 5754,
  "Ġbodies": 6891,
  "Ġbody": 1828,
  "Ġbom": 7546,
  "Ġbomb": 4348,
  "Ġbon": 3268,
  "Ġbond": 7506,
  "Ġbonus": 4626,
  "Ġboo": 1739,
  "Ġbook": 2012,
  "Ġbooks": 2813,
  "Ġboost": 4225,
  "Ġboot": 4810,
  "Ġboots": 7357,
  "Ġborder": 5507,
  "Ġbored": 5922,
  "Ġboring": 3801,
  "Ġborn": 3647,
  "Ġboss": 2827,
  "Ġbosses": 7420,
  "Ġbot": 858,
  "Ġboth": 1046,
  "Ġbother": 3162,
  "Ġbothered": 6802,
  "Ġbott": 2689,
  "Ġbottle": 4819,
  "Ġbottom": 3222,
  "Ġbought": 2114,
  "Ġbound": 5877,
  "Ġbow": 4060,
  "Ġbowl": 6673,
  "Ġbox": 2209,
  "Ġboxes": 6251,
  "Ġboy": 2077,
  "Ġboyfriend": 4284,
  "Ġboys": 5124,
  "Ġbr": 853,
  "Ġbra": 1466,
  "Ġbrain": 2906,
  "Ġbrand": 3132,
  "Ġbre": 1166,
  "Ġbread": 6192,
  "Ġbreak": 1745,
  "Ġbreakfast": 7641,
  "Ġbreaking": 4300,
  "Ġbreaks": 5204,
  "Ġbreast": 6958,
  "Ġbreat": 4208,
  "Ġbreath": 6647,
  "Ġbreed": 4445,
  "Ġbri": 6535,
  "Ġbridge": 7565,
  "Ġbrief": 7723,
  "Ġbright": 5693,
  "Ġbring": 1827,
  "Ġbringing": 5016,
  "Ġbrings": 5696,
  "Ġbro": 1528,
  "Ġbroad": 5246,
  "Ġbroke": 3673,
  "Ġbroken": 3175,
  "Ġbrother": 2788,
  "Ġbrought": 3289,
  "Ġbrown": 5451,
  "Ġbrows": 5973,
  "Ġbrut": 6519,
  "Ġbtw": 5621,
  "Ġbu": 622,
  "Ġbubble": 7735,
  "Ġbuck": 6305,
  "Ġbucks": 5467,
  "Ġbud": 3122,
  "Ġbudd": 4068,
  "Ġbuddy": 4924,
  "Ġbudget": 3877,
  "Ġbuff": 3294,
  "Ġbug": 4740,
  "Ġbugs": 6032,
  "Ġbuild": 1281,
  "Ġbuilding": 2722,
  "Ġbuildings": 7382,
  "Ġbuilds": 6261,
  "Ġbuilt": 3235,
  "Ġbull": 1798,
  "Ġbullet": 6602,
  "Ġbullshit": 2590,
  "Ġbum": 6843,
  "Ġbump": 7159,
  "Ġbunch": 2300,
  "Ġbur": 2407,
  "Ġburn": 3233,
  "Ġburning": 7124,
  "Ġburst": 6680,
  "Ġbus": 1414,
  "Ġbusiness": 1887,
  "Ġbusinesses": 7247,
  "Ġbusy": 4666,
  "Ġbut": 373,
  "Ġbutt": 4451,
  "Ġbutter": 5939,
  "Ġbutton": 3689,
  "Ġbuy": 1016,
  "Ġbuying": 2515,
  "Ġby": 566,
  "Ġc": 280,
  "Ġca": 6538,
  "Ġcab": 6115,
  "Ġcable": 5408,
  "Ġcake": 6141,
  "Ġcal": 2222,
  "Ġcalcul": 5814,
  "Ġcall": 881,
  "Ġcalled": 1561,
  "Ġcalling": 2846,
  "Ġcalls": 4170,
  "Ġcalm": 6212,
  "Ġcalories": 5563,
  "Ġcam": 5411,
  "Ġcame": 1494,
  "Ġcamer": 3044,
  "Ġcamera": 3571,
  "Ġcamp": 2260,
  "Ġcampaign": 3657,
  "Ġcampus": 7877,
  "Ġcan": 396,
  "Ġcancer": 4494,
  "Ġcand": 2989,
  "Ġcandid": 3985,
  "Ġcandidate": 5255,
  "Ġcandy": 7501,
  "Ġcannot": 2450,
  "Ġcant": 2903,
  "Ġcap": 1459,
  "Ġcapable": 5071,
  "Ġcapacity": 7346,
  "Ġcapital": 3938,
  "Ġcapitalism": 7693,
  "Ġcaps": 7436,
  "Ġcapt": 4465,
  "Ġcar": 911,
  "Ġcard": 1725,
  "Ġcards": 2315,
  "Ġcare": 1013,
  "Ġcareer": 3336,
  "Ġcareful": 5609,
  "Ġcares": 4357,
  "Ġcarry": 2738,
  "Ġcarrying": 7106,
  "Ġcars": 2899,
  "Ġcart": 4148,
  "Ġcas": 2258,
  "Ġcase": 1352,
  "Ġcases": 3771,
  "Ġcash": 3271,
  "Ġcast": 2971,
  "Ġcasual": 4628,
  "Ġcat": 2382,
  "Ġcatch": 3455,
  "Ġcate": 5233,
  "Ġcateg": 5484,
  "Ġcategory": 7590,
  "Ġcats": 5724,
  "Ġcau": 1840,
  "Ġcaught": 3473,
  "Ġcause": 1878,
  "Ġcaused": 4489,
  "Ġcauses": 5536,
  "Ġcausing": 5469,
  "Ġce": 3333,
  "Ġcelebr": 5002,
  "Ġcell": 4173,
  "Ġcens": 7397,
  "Ġcent": 2244,
  "Ġcenter": 4397,
  "Ġcentral": 7268,
  "Ġcentury": 7981,
  "Ġcert": 6339,
  "Ġcertain": 1452,
  "Ġcertainly": 2660,
  "Ġch": 677,
  "Ġcha": 723,
  "Ġchain": 5149,
  "Ġchair": 6718,
  "Ġchallen": 3049,
  "Ġchallenge": 4649,
  "Ġchamp": 3090,
  "Ġchampion": 6243,
  "Ġchampions": 5211,
  "Ġchan": 738,
  "Ġchance": 1713,
  "Ġchances": 4967,
  "Ġchang": 1439,
  "Ġchange": 1250,
  "Ġchanged": 2536,
  "Ġchanges": 2716,
  "Ġchanging": 3875,
  "Ġchannel": 5099,
  "Ġchap": 5941,
  "Ġchar": 940,
  "Ġcharac": 1229,
  "Ġcharacter": 1663,
  "Ġcharacters": 2239,
  "Ġcharge": 3071,
  "Ġcharged": 6168,
  "Ġcharges": 6072,
  "Ġcharging": 7434,
  "Ġchat": 3879,
  "Ġche": 804,
  "Ġcheap": 1845,
  "Ġcheaper": 3733,
  "Ġcheat": 6161,
  "Ġcheating": 5509,
  "Ġcheck": 1594,
  "Ġchecked": 4570,
  "Ġchecking": 5360,
  "Ġchecks": 7029,
  "Ġcheese": 4686,
  "Ġchem": 4667,
  "Ġchemical": 7272,
  "Ġchest": 4443,
  "Ġchick": 3408,
  "Ġchicken": 4456,
  "Ġchild": 1320,
  "Ġchildren": 2265,
  "Ġchill": 6758,
  "Ġchip": 7657,
  "Ġchips": 7857,
  "Ġchocolate": 7764,
  "Ġchoice": 2308,
  "Ġchoices": 4826,
  "Ġchoo": 2330,
  "Ġchoose": 2717,
  "Ġchoosing": 7975,
  "Ġchose": 5189,
  "Ġchrist": 6400,
  "Ġchurch": 4463,
  "Ġcig": 5991,
  "Ġcigare": 7309,
  "Ġcir": 2319,
  "Ġcirc": 3116,
  "Ġcircle": 4431,
  "Ġcircum": 4476,
  "Ġcircumst": 5983,
  "Ġcircumstances": 7042,
  "Ġcities": 5148,
  "Ġcitiz": 3997,
  "Ġcitizen": 7940,
  "Ġcitizens": 5145,
  "Ġcity": 2224,
  "Ġcivil": 3820,
  "Ġcl": 676,
  "Ġclaim": 2105,
  "Ġclaimed": 7955,
  "Ġclaiming": 7127,
  "Ġclaims": 5286,
  "Ġclar": 4411,
  "Ġclarify": 6823,
  "Ġclass": 1322,
  "Ġclasses": 3740,
  "Ġclassic": 5630,
  "Ġcle": 1061,
  "Ġclean": 2152,
  "Ġcleaning": 6980,
  "Ġclear": 2002,
  "Ġclearly": 2528,
  "Ġclick": 3846,
  "Ġclient": 5578,
  "Ġclim": 4974,
  "Ġclimate": 7571,
  "Ġclip": 7510,
  "Ġclo": 1118,
  "Ġclock": 6643,
  "Ġclos": 6310,
  "Ġclose": 1583,
  "Ġclosed": 4860,
  "Ġcloser": 4270,
  "Ġclosest": 7332,
  "Ġclot": 3502,
  "Ġclothes": 4537,
  "Ġclothing": 7484,
  "Ġcloud": 6771,
  "Ġclub": 3115,
  "Ġclubs": 7562,
  "Ġclue": 5996,
  "Ġco": 662,
  "Ġcoach": 4997,
  "Ġcoast": 6521,
  "Ġcock": 5657,
  "Ġcod": 6601,
  "Ġcode": 2972,
  "Ġcoff": 3856,
  "Ġcoffee": 4108,
  "Ġcoin": 6403,
  "Ġcoins": 6358,
  "Ġcol": 1824,
  "Ġcold": 3345,
  "Ġcoll": 1349,
  "Ġcollap": 7690,
  "Ġcollect": 3672,
  "Ġcollection": 5779,
  "Ġcollege": 2309,
  "Ġcolor": 3183,
  "Ġcolors": 5881,
  "Ġcolour": 7796,
  "Ġcom": 431,
  "Ġcomb": 2212,
  "Ġcombat": 3895,
  "Ġcombination": 6898,
  "Ġcombined": 6766,
  "Ġcombo": 4973,
  "Ġcome": 1030,
  "Ġcomed": 5936,
  "Ġcomes": 1485,
  "Ġcomfort": 5968,
  "Ġcomfortable": 3964,
  "Ġcomic": 6394,
  "Ġcomics": 7961,
  "Ġcoming": 1680,
  "Ġcomm": 971,
  "Ġcommand": 5067,
  "Ġcomment": 1198,
  "Ġcomments": 2313,
  "Ġcommer": 5856,
  "Ġcommercial": 6314,
  "Ġcommit": 3316,
  "Ġcommitted": 6824,
  "Ġcommon": 2112,
  "Ġcommun": 1600,
  "Ġcommunication": 7040,
  "Ġcommunity": 2223,
  "Ġcomp": 586,
  "Ġcompan": 2679,
  "Ġcompanies": 2931,
  "Ġcompany": 1925,
  "Ġcompar": 3026,
  "Ġcompare": 4403,
  "Ġcompared": 2868,
  "Ġcomparing": 7308,
  "Ġcomparison": 4834,
  "Ġcompat": 7700,
  "Ġcompens": 7296,
  "Ġcompet": 1990,
  "Ġcompete": 6476,
  "Ġcompetition": 4949,
  "Ġcompetitive": 4067,
  "Ġcomplain": 2128,
  "Ġcomplaining": 4503,
  "Ġcomplet": 1180,
  "Ġcomplete": 2714,
  "Ġcompletely": 1481,
  "Ġcomplex": 4392,
  "Ġcomplic": 5060,
  "Ġcomplicated": 6160,
  "Ġcompon": 7442,
  "Ġcomprom": 6941,
  "Ġcomput": 2443,
  "Ġcomputer": 2870,
  "Ġcomputers": 7447,
  "Ġcon": 437,
  "Ġconc": 1705,
  "Ġconce": 7910,
  "Ġconcent": 7560,
  "Ġconcept": 3369,
  "Ġconcern": 2710,
  "Ġconcerned": 4439,
  "Ġconcerns": 7633,
  "Ġconclus": 5742,
  "Ġconclusion": 7439,
  "Ġcond": 4014,
  "Ġcondit": 5636,
  "Ġcondition": 4610,
  "Ġconditions": 5874,
  "Ġconf": 1178,
  "Ġconfidence": 6386,
  "Ġconfident": 5755,
  "Ġconfir": 4844,
  "Ġconfirm": 3993,
  "Ġconfirmed": 5558,
  "Ġconfl": 5421,
  "Ġconflict": 6395,
  "Ġconfused": 3627,
  "Ġconfusing": 6609,
  "Ġconn": 2326,
  "Ġconnect": 3808,
  "Ġconnected": 6262,
  "Ġconnection": 4750,
  "Ġcons": 854,
  "Ġconscious": 7389,
  "Ġconsent": 7320,
  "Ġconsequ": 5168,
  "Ġconsequences": 6254,
  "Ġconserv": 3674,
  "Ġconservative": 4939,
  "Ġconsider": 2093,
  "Ġconsidered": 2681,
  "Ġconsidering": 2943,
  "Ġconsist": 3146,
  "Ġconsistent": 5597,
  "Ġconsistently": 5735,
  "Ġconsole": 4026,
  "Ġconsoles": 7989,
  "Ġconspiracy": 7220,
  "Ġconst": 1813,
  "Ġconstant": 5143,
  "Ġconstantly": 3272,
  "Ġconsum": 3848,
  "Ġcont": 706,
  "Ġcontact": 3031,
  "Ġcontain": 5070,
  "Ġcontent": 2289,
  "Ġcontest": 7095,
  "Ġcontext": 3774,
  "Ġcontin": 1948,
  "Ġcontinue": 2956,
  "Ġcontinues": 7392,
  "Ġcontr": 5961,
  "Ġcontract": 3020,
  "Ġcontrib": 4183,
  "Ġcontro": 1351,
  "Ġcontrol": 1737,
  "Ġcontroll": 3230,
  "Ġcontroller": 5201,
  "Ġcontrols": 7639,
  "Ġcontrovers": 6993,
  "Ġconv": 2460,
  "Ġconven": 6023,
  "Ġconvers": 2734,
  "Ġconversation": 3370,
  "Ġconvin": 4616,
  "Ġconvince": 6079,
  "Ġconvinced": 5610,
  "Ġcoo": 6352,
  "Ġcook": 3598,
  "Ġcooking": 6774,
  "Ġcool": 1449,
  "Ġcop": 1733,
  "Ġcops": 4054,
  "Ġcopy": 3694,
  "Ġcor": 1179,
  "Ġcore": 3695,
  "Ġcorner": 4898,
  "Ġcorpor": 4278,
  "Ġcorporate": 6913,
  "Ġcorrect": 1919,
  "Ġcorrectly": 4559,
  "Ġcorrupt": 4883,
  "Ġcos": 5312,
  "Ġcost": 1453,
  "Ġcosts": 3525,
  "Ġcou": 1134,
  "Ġcould": 596,
  "Ġcouldn": 1768,
  "Ġcoun": 2413,
  "Ġcount": 1067,
  "Ġcounter": 3098,
  "Ġcountries": 3034,
  "Ġcountry": 1602,
  "Ġcounts": 7872,
  "Ġcoup": 7246,
  "Ġcouple": 1580,
  "Ġcour": 1301,
  "Ġcourse": 1562,
  "Ġcourt": 3812,
  "Ġcous": 6367,
  "Ġcousin": 8001,
  "Ġcover": 2793,
  "Ġcoverage": 6866,
  "Ġcovered": 4977,
  "Ġcow": 4442,
  "Ġcowork": 7810,
  "Ġcr": 885,
  "Ġcra": 1283,
  "Ġcrack": 4897,
  "Ġcraft": 6038,
  "Ġcrap": 3330,
  "Ġcrappy": 7986,
  "Ġcrash": 6077,
  "Ġcrazy": 2062,
  "Ġcre": 1264,
  "Ġcream": 5441,
  "Ġcreat": 1789,
  "Ġcreate": 2914,
  "Ġcreated": 3645,
  "Ġcreating": 5315,
  "Ġcreative": 7107,
  "Ġcred": 7093,
  "Ġcredit": 2792,
  "Ġcreep": 3953,
  "Ġcreepy": 6127,
  "Ġcrew": 5871,
  "Ġcrim": 4211,
  "Ġcrime": 4000,
  "Ġcrimes": 7259,
  "Ġcriminal": 5704,
  "Ġcris": 7109,
  "Ġcrit": 2280,
  "Ġcritic": 3972,
  "Ġcritical": 6205,
  "Ġcriticism": 6113,
  "Ġcross": 2957,
  "Ġcrow": 4081,
  "Ġcrowd": 4595,
  "Ġcry": 2559,
  "Ġcrying": 5313,
  "Ġcrypt": 7526,
  "Ġcult": 2263,
  "Ġcultural": 7161,
  "Ġculture": 3192,
  "Ġcunt": 7654,
  "Ġcup": 4656,
  "Ġcur": 1052,
  "Ġcurious": 2896,
  "Ġcurrency": 7623,
  "Ġcurrent": 1465,
  "Ġcurrently": 2495,
  "Ġcustom": 2231,
  "Ġcustomer": 4472,
  "Ġcustomers": 4733,
  "Ġcut": 1427,
  "Ġcute": 4549,
  "Ġcuts": 6899,
  "Ġcutting": 5378,
  "Ġcuz": 7322,
  "Ġcy": 2821,
  "Ġcycle": 5120,
  "Ġd": 288,
  "Ġda": 2759,
  "Ġdad": 2385,
  "Ġdaily": 3679,
  "Ġdam": 1084,
  "Ġdamage": 1592,
  "Ġdamn": 1972,
  "Ġdance": 7605,
  "Ġdanger": 3128,
  "Ġdangerous": 3802,
  "Ġdark": 2683,
  "Ġdat": 5948,
  "Ġdata": 2810,
  "Ġdate": 2791,
  "Ġdates": 7971,
  "Ġdating": 4643,
  "Ġdaughter": 4157,
  "Ġday": 704,
  "Ġdays": 1323,
  "Ġde": 465,
  "Ġdead": 1906,
  "Ġdeal": 1309,
  "Ġdealing": 5014,
  "Ġdeals": 6206,
  "Ġdeath": 2044,
  "Ġdeb": 3046,
  "Ġdebate": 5062,
  "Ġdebt": 4756,
  "Ġdec": 806,
  "Ġdecade": 5812,
  "Ġdecades": 5839,
  "Ġdecent": 2351,
  "Ġdecide": 3234,
  "Ġdecided": 2522,
  "Ġdecides": 7935,
  "Ġdecision": 3182,
  "Ġdecisions": 4753,
  "Ġdeck": 3119,
  "Ġdecks": 5330,
  "Ġdecl": 5471,
  "Ġdecre": 7408,
  "Ġded": 4381,
  "Ġdedicated": 6530,
  "Ġdeep": 2682,
  "Ġdef": 811,
  "Ġdefault": 5553,
  "Ġdefe": 5793,
  "Ġdefend": 4002,
  "Ġdefending": 6346,
  "Ġdefense": 3006,
  "Ġdefensive": 4892,
  "Ġdefin": 1194,
  "Ġdefinitely": 1371,
  "Ġdefinition": 4831,
  "Ġdeg": 2812,
  "Ġdegree": 3621,
  "Ġdegrees": 6651,
  "Ġdel": 5051,
  "Ġdelay": 5972,
  "Ġdelet": 4274,
  "Ġdelete": 6652,
  "Ġdeleted": 7041,
  "Ġdeli": 3686,
  "Ġdelic": 6110,
  "Ġdelicious": 6977,
  "Ġdeliver": 6988,
  "Ġdelivery": 7365,
  "Ġdelus": 7628,
  "Ġdem": 1636,
  "Ġdemand": 4079,
  "Ġdemocr": 4230,
  "Ġdemocracy": 7738,
  "Ġdemon": 5057,
  "Ġden": 3102,
  "Ġdeny": 7025,
  "Ġdep": 1218,
  "Ġdepart": 4999,
  "Ġdepartment": 6167,
  "Ġdepend": 5157,
  "Ġdepending": 4141,
  "Ġdepends": 3653,
  "Ġdepos": 7996,
  "Ġdepressed": 7130,
  "Ġdepression": 5384,
  "Ġdepth": 5626,
  "Ġder": 5651,
  "Ġdes": 922,
  "Ġdesc": 2564,
  "Ġdescrib": 4663,
  "Ġdescribe": 5698,
  "Ġdescribed": 6637,
  "Ġdescription": 6915,
  "Ġdeser": 2458,
  "Ġdeserve": 3807,
  "Ġdeserved": 7802,
  "Ġdeserves": 5295,
  "Ġdesign": 2054,
  "Ġdesigned": 4527,
  "Ġdesire": 6230,
  "Ġdesk": 4789,
  "Ġdesp": 3097,
  "Ġdesper": 5448,
  "Ġdespite": 3631,
  "Ġdest": 2137,
  "Ġdestro": 2671,
  "Ġdestroy": 3174,
  "Ġdestroyed": 5352,
  "Ġdet": 1702,
  "Ġdetail": 4614,
  "Ġdetails": 4490,
  "Ġdeterm": 4561,
  "Ġdetermine": 7556,
  "Ġdev": 1902,
  "Ġdevelop": 1851,
  "Ġdeveloped": 5775,
  "Ġdeveloper": 7437,
  "Ġdevelopers": 6549,
  "Ġdevelopment": 4084,
  "Ġdevice": 4391,
  "Ġdevices": 6433,
  "Ġdevs": 6341,
  "Ġdi": 1849,
  "Ġdiagn": 6336,
  "Ġdial": 5598,
  "Ġdiam": 6630,
  "Ġdiamond": 7384,
  "Ġdick": 2747,
  "Ġdict": 6858,
  "Ġdid": 550,
  "Ġdidn": 761,
  "Ġdidnt": 3903,
  "Ġdie": 2031,
  "Ġdied": 2969,
  "Ġdies": 5216,
  "Ġdiet": 4705,
  "Ġdiff": 732,
  "Ġdiffere": 813,
  "Ġdifference": 1890,
  "Ġdifferences": 6493,
  "Ġdifferent": 963,
  "Ġdifferently": 5468,
  "Ġdifficult": 2489,
  "Ġdifficulty": 6335,
  "Ġdig": 3186,
  "Ġdigital": 6728,
  "Ġdim": 6097,
  "Ġdin": 3912,
  "Ġdinner": 5048,
  "Ġdip": 5895,
  "Ġdirect": 1681,
  "Ġdirection": 4220,
  "Ġdirectly": 3380,
  "Ġdirt": 7137,
  "Ġdirty": 5463,
  "Ġdis": 684,
  "Ġdisag": 2712,
  "Ġdisagree": 2997,
  "Ġdisapp": 2694,
  "Ġdisappoint": 4065,
  "Ġdisappointed": 5017,
  "Ġdisc": 1240,
  "Ġdiscount": 6428,
  "Ġdiscovered": 7297,
  "Ġdiscrim": 7713,
  "Ġdiscuss": 2262,
  "Ġdiscussion": 3667,
  "Ġdise": 5592,
  "Ġdisease": 6944,
  "Ġdisg": 4318,
  "Ġdisgusting": 5689,
  "Ġdish": 6884,
  "Ġdislike": 5244,
  "Ġdismiss": 7782,
  "Ġdisp": 5227,
  "Ġdisplay": 4845,
  "Ġdisrespect": 7853,
  "Ġdiss": 6009,
  "Ġdist": 1772,
  "Ġdistance": 4522,
  "Ġdistract": 6269,
  "Ġdistrib": 6322,
  "Ġdiv": 2848,
  "Ġdivision": 6841,
  "Ġdo": 361,
  "Ġdoc": 3757,
  "Ġdoct": 2680,
  "Ġdoctor": 3495,
  "Ġdoctors": 6286,
  "Ġdocument": 5258,
  "Ġdod": 5491,
  "Ġdoes": 569,
  "Ġdoesn": 729,
  "Ġdoesnt": 3853,
  "Ġdog": 1784,
  "Ġdogs": 3914,
  "Ġdoing": 929,
  "Ġdoll": 2478,
  "Ġdollar": 4965,
  "Ġdollars": 3447,
  "Ġdom": 3095,
  "Ġdomin": 4434,
  "Ġdon": 446,
  "Ġdone": 1124,
  "Ġdont": 1601,
  "Ġdoor": 2696,
  "Ġdoors": 6918,
  "Ġdou": 1440,
  "Ġdoub": 6512,
  "Ġdouble": 3014,
  "Ġdoubt": 2364,
  "Ġdouche": 6085,
  "Ġdown": 694,
  "Ġdownload": 3876,
  "Ġdownt": 7184,
  "Ġdownvot": 2705,
  "Ġdownvote": 5499,
  "Ġdownvoted": 4062,
  "Ġdownvotes": 5654,
  "Ġdozen": 7688,
  "Ġdps": 7539,
  "Ġdr": 1015,
  "Ġdra": 1341,
  "Ġdraft": 3717,
  "Ġdrag": 5407,
  "Ġdragon": 5647,
  "Ġdram": 7817,
  "Ġdrama": 6118,
  "Ġdraw": 2733,
  "Ġdrawing": 7387,
  "Ġdream": 3054,
  "Ġdreams": 7482,
  "Ġdress": 4523,
  "Ġdri": 1141,
  "Ġdrink": 2521,
  "Ġdrinking": 4146,
  "Ġdrinks": 6629,
  "Ġdrive": 2096,
  "Ġdriven": 7671,
  "Ġdriver": 3724,
  "Ġdrivers": 4453,
  "Ġdrives": 6191,
  "Ġdriving": 3129,
  "Ġdro": 1360,
  "Ġdrop": 2226,
  "Ġdropped": 3918,
  "Ġdropping": 6021,
  "Ġdrops": 4736,
  "Ġdrove": 7626,
  "Ġdrug": 2274,
  "Ġdrugs": 3552,
  "Ġdrunk": 4124,
  "Ġdry": 3996,
  "Ġdu": 7280,
  "Ġdual": 7487,
  "Ġdude": 2082,
  "Ġdudes": 6226,
  "Ġdue": 1922,
  "Ġdumb": 2405,
  "Ġdump": 4801,
  "Ġdun": 3658,
  "Ġdunno": 5876,
  "Ġdur": 6749,
  "Ġduring": 1591,
  "Ġdust": 6487,
  "Ġduty": 7643,
  "Ġdy": 5366,
  "Ġdying": 4359,
  "Ġdynam": 7535,
  "Ġe": 314,
  "Ġeach": 1260,
  "Ġear": 2709,
  "Ġearlier": 3951,
  "Ġearly": 1967,
  "Ġearn": 4071,
  "Ġearned": 7954,
  "Ġears": 7791,
  "Ġearth": 3923,
  "Ġeas": 990,
  "Ġeasier": 2255,
  "Ġeasily": 2136,
  "Ġeast": 5546,
  "Ġeasy": 1588,
  "Ġeat": 1861,
  "Ġeating": 3022,
  "Ġeconom": 2728,
  "Ġeconomic": 5787,
  "Ġeconomy": 4544,
  "Ġed": 1344,
  "Ġedge": 5046,
  "Ġedit": 2583,
  "Ġeduc": 3120,
  "Ġeducation": 4198,
  "Ġeff": 1196,
  "Ġeffect": 1564,
  "Ġeffective": 4178,
  "Ġeffectively": 5926,
  "Ġeffects": 3916,
  "Ġeffic": 4380,
  "Ġefficient": 6171,
  "Ġeffort": 3287,
  "Ġegg": 3307,
  "Ġeggs": 5595,
  "Ġeither": 1164,
  "Ġel": 927,
  "Ġele": 4085,
  "Ġelect": 1901,
  "Ġelected": 7261,
  "Ġelection": 4299,
  "Ġelectric": 5472,
  "Ġelectron": 7619,
  "Ġelement": 5564,
  "Ġelements": 7468,
  "Ġelim": 6256,
  "Ġelite": 6852,
  "Ġelse": 1051,
  "Ġelsewhere": 6457,
  "Ġem": 991,
  "Ġemail": 3901,
  "Ġemb": 3940,
  "Ġembarrass": 4915,
  "Ġemer": 5503,
  "Ġemergency": 7195,
  "Ġemot": 2882,
  "Ġemotional": 5163,
  "Ġemotions": 7284,
  "Ġemp": 1654,
  "Ġemploy": 2367,
  "Ġemployee": 5706,
  "Ġemployees": 4722,
  "Ġempty": 4851,
  "Ġen": 592,
  "Ġenc": 2525,
  "Ġencounter": 7974,
  "Ġencoura": 4383,
  "Ġencourage": 6714,
  "Ġend": 835,
  "Ġended": 2805,
  "Ġending": 4127,
  "Ġends": 4004,
  "Ġenem": 2318,
  "Ġenemies": 4417,
  "Ġenemy": 3121,
  "Ġenergy": 3147,
  "Ġenforce": 6656,
  "Ġeng": 1850,
  "Ġengage": 6617,
  "Ġengine": 2719,
  "Ġengineer": 7793,
  "Ġengineering": 7177,
  "Ġenjoy": 1532,
  "Ġenjoyed": 4689,
  "Ġenjoying": 6326,
  "Ġenough": 954,
  "Ġens": 5183,
  "Ġensure": 7465,
  "Ġent": 1011,
  "Ġenter": 5207,
  "Ġentertain": 4679,
  "Ġentire": 1369,
  "Ġentirely": 3154,
  "Ġentit": 5718,
  "Ġentitled": 6679,
  "Ġentry": 6981,
  "Ġenv": 3278,
  "Ġenviron": 3715,
  "Ġenvironment": 3943,
  "Ġep": 1956,
  "Ġepic": 7288,
  "Ġepis": 2355,
  "Ġepisode": 2948,
  "Ġepisodes": 5195,
  "Ġequ": 1791,
  "Ġequal": 4407,
  "Ġequally": 6657,
  "Ġequip": 5095,
  "Ġequipment": 5738,
  "Ġequival": 5581,
  "Ġequivalent": 6020,
  "Ġer": 2483,
  "Ġera": 6265,
  "Ġerror": 5907,
  "Ġes": 1348,
  "Ġesc": 3669,
  "Ġescape": 6082,
  "Ġespecially": 1777,
  "Ġess": 3052,
  "Ġessentially": 4040,
  "Ġest": 2736,
  "Ġestab": 4692,
  "Ġestablish": 7651,
  "Ġestablished": 7911,
  "Ġetc": 1213,
  "Ġeth": 4868,
  "Ġev": 1039,
  "Ġeven": 600,
  "Ġevent": 1875,
  "Ġevents": 3773,
  "Ġeventually": 2963,
  "Ġever": 957,
  "Ġevery": 565,
  "Ġeverybody": 4488,
  "Ġeveryday": 5464,
  "Ġeveryone": 1017,
  "Ġeverything": 1169,
  "Ġeverywhere": 3843,
  "Ġevidence": 2876,
  "Ġevil": 3762,
  "Ġevolution": 7909,
  "Ġex": 435,
  "Ġexact": 1333,
  "Ġexactly": 1623,
  "Ġexam": 7207,
  "Ġexample": 1779,
  "Ġexamples": 5739,
  "Ġexc": 1407,
  "Ġexcellent": 5458,
  "Ġexcept": 2107,
  "Ġexception": 6814,
  "Ġexcess": 7507,
  "Ġexchange": 5699,
  "Ġexcited": 3424,
  "Ġexciting": 7011,
  "Ġexclus": 4254,
  "Ġexclusive": 6763,
  "Ġexcuse": 4241,
  "Ġexec": 4498,
  "Ġexerc": 4671,
  "Ġexercise": 5987,
  "Ġexha": 6810,
  "Ġexist": 1888,
  "Ġexisted": 7101,
  "Ġexistence": 5764,
  "Ġexisting": 6432,
  "Ġexists": 4836,
  "Ġexp": 641,
  "Ġexpand": 5631,
  "Ġexpans": 5122,
  "Ġexpansion": 6028,
  "Ġexpect": 1398,
  "Ġexpectations": 7069,
  "Ġexpected": 3626,
  "Ġexpecting": 4599,
  "Ġexpensive": 2546,
  "Ġexper": 1201,
  "Ġexperien": 3033,
  "Ġexperience": 1469,
  "Ġexperienced": 4854,
  "Ġexperiences": 5402,
  "Ġexperiment": 6494,
  "Ġexpert": 5466,
  "Ġexpl": 3051,
  "Ġexplain": 1785,
  "Ġexplained": 5822,
  "Ġexplaining": 7090,
  "Ġexplan": 4700,
  "Ġexplanation": 5191,
  "Ġexplo": 3372,
  "Ġexplore": 7714,
  "Ġexplos": 6788,
  "Ġexpress": 6938,
  "Ġext": 1110,
  "Ġextent": 6550,
  "Ġextra": 2089,
  "Ġextrem": 2026,
  "Ġextreme": 5115,
  "Ġextremely": 2606,
  "Ġey": 1754,
  "Ġeye": 2974,
  "Ġeyes": 2674,
  "Ġf": 284,
  "Ġfa": 808,
  "Ġfac": 3419,
  "Ġface": 1622,
  "Ġfacebook": 7084,
  "Ġfaces": 7648,
  "Ġfacing": 7701,
  "Ġfact": 1041,
  "Ġfactor": 4872,
  "Ġfactors": 7934,
  "Ġfactory": 7618,
  "Ġfacts": 5129,
  "Ġfail": 1999,
  "Ġfailed": 4479,
  "Ġfailure": 5884,
  "Ġfair": 1567,
  "Ġfairly": 3169,
  "Ġfaith": 4676,
  "Ġfake": 3510,
  "Ġfall": 1923,
  "Ġfalling": 5890,
  "Ġfalls": 6582,
  "Ġfalse": 4441,
  "Ġfam": 1267,
  "Ġfamiliar": 5184,
  "Ġfamilies": 6195,
  "Ġfamily": 1554,
  "Ġfamous": 6723,
  "Ġfan": 1599,
  "Ġfancy": 7343,
  "Ġfans": 2156,
  "Ġfant": 2993,
  "Ġfantastic": 4384,
  "Ġfantasy": 5736,
  "Ġfar": 987,
  "Ġfarm": 3907,
  "Ġfarming": 6659,
  "Ġfart": 7053,
  "Ġfasc": 5841,
  "Ġfashion": 6599,
  "Ġfast": 1517,
  "Ġfaster": 3127,
  "Ġfat": 2588,
  "Ġfather": 3148,
  "Ġfault": 3368,
  "Ġfav": 1537,
  "Ġfavor": 1833,
  "Ġfavorite": 2297,
  "Ġfavour": 4652,
  "Ġfavourite": 6179,
  "Ġfe": 518,
  "Ġfear": 3418,
  "Ġfeature": 4264,
  "Ġfeatures": 4534,
  "Ġfed": 3741,
  "Ġfederal": 5745,
  "Ġfee": 5798,
  "Ġfeed": 2807,
  "Ġfeedback": 5782,
  "Ġfeel": 695,
  "Ġfeeling": 2213,
  "Ġfeelings": 4206,
  "Ġfeels": 2293,
  "Ġfees": 6257,
  "Ġfeet": 3790,
  "Ġfell": 3245,
  "Ġfellow": 5649,
  "Ġfelt": 2061,
  "Ġfem": 2117,
  "Ġfemale": 2970,
  "Ġfemin": 4448,
  "Ġfet": 6076,
  "Ġfew": 888,
  "Ġfield": 2749,
  "Ġfig": 1783,
  "Ġfight": 1343,
  "Ġfighter": 7047,
  "Ġfighting": 3248,
  "Ġfights": 4962,
  "Ġfigure": 1994,
  "Ġfigured": 4175,
  "Ġfil": 1736,
  "Ġfile": 4246,
  "Ġfiles": 5872,
  "Ġfill": 2466,
  "Ġfilled": 4986,
  "Ġfilm": 3365,
  "Ġfilms": 6683,
  "Ġfilter": 6502,
  "Ġfin": 1087,
  "Ġfinal": 3396,
  "Ġfinally": 2644,
  "Ġfinan": 4998,
  "Ġfinancial": 5241,
  "Ġfind": 850,
  "Ġfinding": 3520,
  "Ġfinds": 7593,
  "Ġfine": 1435,
  "Ġfing": 3557,
  "Ġfinger": 5474,
  "Ġfingers": 6190,
  "Ġfinish": 3444,
  "Ġfinished": 3904,
  "Ġfire": 1823,
  "Ġfired": 4655,
  "Ġfirm": 6119,
  "Ġfirst": 730,
  "Ġfish": 4482,
  "Ġfit": 2164,
  "Ġfits": 6094,
  "Ġfive": 3809,
  "Ġfix": 1780,
  "Ġfixed": 3935,
  "Ġfl": 891,
  "Ġflag": 3933,
  "Ġflair": 6263,
  "Ġflash": 4571,
  "Ġflat": 3836,
  "Ġflav": 4688,
  "Ġflavor": 6779,
  "Ġflaw": 4930,
  "Ġfle": 6244,
  "Ġflex": 6698,
  "Ġflight": 5748,
  "Ġflip": 5998,
  "Ġflo": 2856,
  "Ġfloor": 3889,
  "Ġflow": 5267,
  "Ġflu": 6074,
  "Ġfly": 4007,
  "Ġflying": 4861,
  "Ġfoc": 2165,
  "Ġfocus": 2532,
  "Ġfocused": 5894,
  "Ġfol": 3671,
  "Ġfold": 5660,
  "Ġfolks": 4213,
  "Ġfoll": 1625,
  "Ġfollow": 2206,
  "Ġfollowed": 5282,
  "Ġfollowing": 3504,
  "Ġfood": 1585,
  "Ġfoods": 7938,
  "Ġfool": 5269,
  "Ġfoot": 2187,
  "Ġfootball": 3608,
  "Ġfor": 335,
  "Ġforce": 2513,
  "Ġforced": 3586,
  "Ġforces": 6154,
  "Ġforcing": 7363,
  "Ġfore": 2008,
  "Ġforeign": 4579,
  "Ġforever": 3782,
  "Ġforg": 6411,
  "Ġforget": 2423,
  "Ġforgot": 3194,
  "Ġform": 1747,
  "Ġformat": 5461,
  "Ġformer": 5074,
  "Ġforms": 7662,
  "Ġfort": 5675,
  "Ġforth": 6963,
  "Ġforum": 7702,
  "Ġforward": 2718,
  "Ġfought": 7012,
  "Ġfound": 1368,
  "Ġfour": 3004,
  "Ġfps": 7866,
  "Ġfr": 447,
  "Ġframe": 4408,
  "Ġfranch": 5705,
  "Ġfranchise": 6362,
  "Ġfrank": 7399,
  "Ġfre": 1560,
  "Ġfreak": 6653,
  "Ġfreaking": 6508,
  "Ġfree": 1176,
  "Ġfreed": 4355,
  "Ġfreedom": 4784,
  "Ġfrequ": 4136,
  "Ġfrequently": 6375,
  "Ġfresh": 4107,
  "Ġfriend": 903,
  "Ġfriendly": 4601,
  "Ġfriends": 1329,
  "Ġfro": 5262,
  "Ġfrom": 482,
  "Ġfront": 1957,
  "Ġfruit": 7061,
  "Ġfrust": 3580,
  "Ġfrustrating": 5716,
  "Ġfuck": 977,
  "Ġfucked": 2639,
  "Ġfuckin": 7349,
  "Ġfucking": 1096,
  "Ġfucks": 6792,
  "Ġfuel": 5476,
  "Ġfull": 1177,
  "Ġfully": 3231,
  "Ġfun": 941,
  "Ġfunct": 6837,
  "Ġfunction": 3818,
  "Ġfund": 2724,
  "Ġfundament": 6440,
  "Ġfunding": 7642,
  "Ġfunds": 7583,
  "Ġfunny": 2124,
  "Ġfur": 2551,
  "Ġfurther": 3089,
  "Ġfut": 2019,
  "Ġfuture": 2101,
  "Ġg": 294,
  "Ġgain": 2593,
  "Ġgall": 7353,
  "Ġgam": 5320,
  "Ġgame": 634,
  "Ġgameplay": 4331,
  "Ġgames": 1012,
  "Ġgaming": 3804,
  "Ġgang": 6591,
  "Ġgap": 6574,
  "Ġgar": 6078,
  "Ġgarbage": 4405,
  "Ġgas": 3663,
  "Ġgate": 7609,
  "Ġgather": 7290,
  "Ġgave": 2126,
  "Ġgay": 2829,
  "Ġge": 5153,
  "Ġgear": 3106,
  "Ġgen": 967,
  "Ġgender": 4194,
  "Ġgener": 1174,
  "Ġgeneral": 2015,
  "Ġgenerally": 2735,
  "Ġgeneration": 4852,
  "Ġgeneric": 7758,
  "Ġgenuine": 3995,
  "Ġgenuinely": 5028,
  "Ġget": 407,
  "Ġgets": 1234,
  "Ġgetting": 889,
  "Ġghost": 6366,
  "Ġgi": 1223,
  "Ġgiant": 4807,
  "Ġgif": 5279,
  "Ġgift": 5477,
  "Ġgig": 6688,
  "Ġgir": 1195,
  "Ġgirl": 1342,
  "Ġgirlfriend": 3632,
  "Ġgirls": 2596,
  "Ġgive": 945,
  "Ġgiven": 2005,
  "Ġgives": 2317,
  "Ġgiving": 2145,
  "Ġgl": 1424,
  "Ġglad": 2730,
  "Ġglass": 3862,
  "Ġglo": 3561,
  "Ġglobal": 6255,
  "Ġgo": 425,
  "Ġgoal": 2918,
  "Ġgoals": 4797,
  "Ġgod": 1936,
  "Ġgodd": 5956,
  "Ġgoddamn": 7201,
  "Ġgods": 7071,
  "Ġgoes": 1568,
  "Ġgoing": 655,
  "Ġgold": 2284,
  "Ġgolden": 7530,
  "Ġgone": 2292,
  "Ġgonna": 1556,
  "Ġgoo": 5834,
  "Ġgood": 584,
  "Ġgoogle": 4847,
  "Ġgot": 660,
  "Ġgotta": 3857,
  "Ġgotten": 2762,
  "Ġgovern": 1732,
  "Ġgovernment": 1894,
  "Ġgr": 719,
  "Ġgra": 1647,
  "Ġgrab": 3432,
  "Ġgrad": 3570,
  "Ġgrade": 5047,
  "Ġgradu": 5055,
  "Ġgrand": 2872,
  "Ġgraph": 4272,
  "Ġgraphics": 5763,
  "Ġgreat": 848,
  "Ġgreater": 5925,
  "Ġgreatest": 5180,
  "Ġgreatly": 7985,
  "Ġgreen": 3526,
  "Ġgrew": 4576,
  "Ġgri": 4460,
  "Ġgrind": 3845,
  "Ġgro": 7814,
  "Ġgross": 5882,
  "Ġgrou": 1527,
  "Ġground": 2650,
  "Ġgroup": 1865,
  "Ġgroups": 3735,
  "Ġgrow": 2758,
  "Ġgrowing": 4512,
  "Ġgrown": 6146,
  "Ġgrowth": 6073,
  "Ġgu": 582,
  "Ġguarant": 3798,
  "Ġguarantee": 5852,
  "Ġguaranteed": 6516,
  "Ġguard": 4585,
  "Ġguess": 1191,
  "Ġguessing": 4864,
  "Ġguide": 6878,
  "Ġguild": 6949,
  "Ġguilty": 5110,
  "Ġguitar": 7070,
  "Ġgun": 1488,
  "Ġguns": 3056,
  "Ġguy": 722,
  "Ġguys": 1165,
  "Ġgym": 4144,
  "Ġh": 326,
  "Ġha": 313,
  "Ġhabit": 7020,
  "Ġhack": 4817,
  "Ġhad": 562,
  "Ġhadn": 5035,
  "Ġhaha": 2690,
  "Ġhair": 2490,
  "Ġhalf": 1475,
  "Ġhall": 5744,
  "Ġhand": 982,
  "Ġhanded": 6875,
  "Ġhandle": 3225,
  "Ġhandled": 7776,
  "Ġhands": 2497,
  "Ġhang": 3043,
  "Ġhanging": 5937,
  "Ġhapp": 718,
  "Ġhappen": 962,
  "Ġhappened": 1610,
  "Ġhappening": 2998,
  "Ġhappens": 1933,
  "Ġhappy": 1715,
  "Ġhar": 782,
  "Ġharass": 6129,
  "Ġhard": 870,
  "Ġharder": 3136,
  "Ġhardest": 7532,
  "Ġhardly": 5638,
  "Ġhardware": 5339,
  "Ġharm": 4166,
  "Ġharsh": 7451,
  "Ġhas": 526,
  "Ġhasn": 2881,
  "Ġhat": 1032,
  "Ġhate": 1335,
  "Ġhated": 4672,
  "Ġhates": 5875,
  "Ġhating": 7803,
  "Ġhave": 360,
  "Ġhaven": 1490,
  "Ġhaving": 1031,
  "Ġhe": 338,
  "Ġhead": 1206,
  "Ġheads": 4964,
  "Ġheal": 3050,
  "Ġhealing": 5952,
  "Ġhealth": 1642,
  "Ġhealthcare": 5921,
  "Ġhealthy": 3585,
  "Ġhear": 1515,
  "Ġheard": 1534,
  "Ġhearing": 4032,
  "Ġheart": 2485,
  "Ġheat": 4046,
  "Ġheav": 2390,
  "Ġheavily": 5142,
  "Ġheavy": 3318,
  "Ġheight": 6340,
  "Ġhel": 830,
  "Ġheld": 4418,
  "Ġhell": 1710,
  "Ġhelp": 934,
  "Ġhelped": 3703,
  "Ġhelpful": 4792,
  "Ġhelping": 4452,
  "Ġhelps": 2887,
  "Ġher": 601,
  "Ġhere": 747,
  "Ġhero": 2366,
  "Ġheroes": 4950,
  "Ġherself": 4786,
  "Ġhes": 4647,
  "Ġhey": 4909,
  "Ġhi": 7336,
  "Ġhidden": 6613,
  "Ġhide": 4762,
  "Ġhiding": 7905,
  "Ġhig": 1771,
  "Ġhigh": 1006,
  "Ġhigher": 2071,
  "Ġhighest": 4639,
  "Ġhighlight": 7108,
  "Ġhighly": 3648,
  "Ġhilar": 4471,
  "Ġhilarious": 4730,
  "Ġhill": 7731,
  "Ġhim": 577,
  "Ġhimself": 2383,
  "Ġhip": 6027,
  "Ġhire": 5757,
  "Ġhired": 7637,
  "Ġhis": 560,
  "Ġhist": 1946,
  "Ġhistor": 5583,
  "Ġhistory": 2241,
  "Ġhit": 1299,
  "Ġhits": 4091,
  "Ġhitting": 4592,
  "Ġho": 7696,
  "Ġhob": 5459,
  "Ġhobby": 7533,
  "Ġhockey": 7149,
  "Ġhol": 4827,
  "Ġhold": 1606,
  "Ġholding": 3607,
  "Ġholds": 7091,
  "Ġhole": 4481,
  "Ġholes": 7155,
  "Ġholy": 5794,
  "Ġhom": 3325,
  "Ġhome": 1259,
  "Ġhomeless": 6684,
  "Ġhomes": 7486,
  "Ġhon": 5278,
  "Ġhonest": 1433,
  "Ġhonestly": 2006,
  "Ġhook": 4535,
  "Ġhop": 2170,
  "Ġhope": 1214,
  "Ġhopefully": 4378,
  "Ġhopes": 7964,
  "Ġhoping": 3144,
  "Ġhor": 1848,
  "Ġhorrible": 3337,
  "Ġhorror": 7428,
  "Ġhorse": 5665,
  "Ġhosp": 4043,
  "Ġhospital": 4499,
  "Ġhost": 3499,
  "Ġhot": 1979,
  "Ġhotel": 7148,
  "Ġhour": 1149,
  "Ġhours": 1429,
  "Ġhous": 4316,
  "Ġhouse": 1571,
  "Ġhouses": 6795,
  "Ġhousing": 6917,
  "Ġhow": 544,
  "Ġhowever": 2646,
  "Ġhu": 1345,
  "Ġhuge": 1674,
  "Ġhum": 1388,
  "Ġhuman": 1958,
  "Ġhumanity": 7464,
  "Ġhumans": 4025,
  "Ġhumor": 6793,
  "Ġhun": 3601,
  "Ġhund": 3517,
  "Ġhundred": 3534,
  "Ġhundreds": 5001,
  "Ġhung": 5300,
  "Ġhungry": 7730,
  "Ġhunt": 7431,
  "Ġhunting": 6886,
  "Ġhur": 1932,
  "Ġhurt": 2620,
  "Ġhurts": 5964,
  "Ġhus": 3221,
  "Ġhusband": 3451,
  "Ġhy": 1973,
  "Ġhyp": 4311,
  "Ġhype": 5386,
  "Ġhyper": 6742,
  "Ġhypocr": 6820,
  "Ġi": 607,
  "ĠiP": 3987,
  "ĠiPh": 5029,
  "ĠiPhone": 5427,
  "Ġic": 5855,
  "Ġice": 3890,
  "Ġid": 1952,
  "Ġide": 986,
  "Ġidea": 1139,
  "Ġideal": 6128,
  "Ġideas": 3516,
  "Ġident": 3025,
  "Ġidentify": 7469,
  "Ġidentity": 6216,
  "Ġidiot": 3485,
  "Ġidiots": 5728,
  "Ġidk": 6067,
  "Ġif": 421,
  "Ġign": 2042,
  "Ġignor": 4212,
  "Ġignorant": 5674,
  "Ġignore": 3837,
  "Ġignored": 7459,
  "Ġignoring": 7164,
  "Ġill": 1832,
  "Ġilleg": 2879,
  "Ġillegal": 3239,
  "Ġillness": 7314,
  "Ġim": 624,
  "Ġimag": 1708,
  "Ġimage": 4034,
  "Ġimagine": 2085,
  "Ġimm": 2487,
  "Ġimmedi": 2756,
  "Ġimmediately": 3107,
  "Ġimmig": 4790,
  "Ġimo": 3947,
  "Ġimp": 812,
  "Ġimpact": 3625,
  "Ġimplement": 4704,
  "Ġimport": 1612,
  "Ġimportant": 1750,
  "Ġimpossible": 3414,
  "Ġimpressed": 7262,
  "Ġimpression": 6267,
  "Ġimpressive": 5785,
  "Ġimpro": 2325,
  "Ġimprove": 3203,
  "Ġimproved": 6906,
  "Ġimprovement": 7906,
  "Ġin": 302,
  "Ġinc": 832,
  "Ġincent": 6691,
  "Ġincident": 7483,
  "Ġincl": 1753,
  "Ġinclud": 2281,
  "Ġinclude": 4188,
  "Ġincluded": 4719,
  "Ġincludes": 7008,
  "Ġincluding": 3496,
  "Ġincom": 5423,
  "Ġincome": 3606,
  "Ġincorrect": 6956,
  "Ġincre": 2090,
  "Ġincrease": 3340,
  "Ġincreased": 5831,
  "Ġincreases": 7635,
  "Ġincreasing": 6401,
  "Ġincred": 2529,
  "Ġincredible": 5084,
  "Ġincredibly": 3320,
  "Ġind": 1219,
  "Ġindeed": 5382,
  "Ġindepend": 5104,
  "Ġindependent": 7116,
  "Ġindic": 6787,
  "Ġindivid": 3015,
  "Ġindividual": 3228,
  "Ġindividuals": 6830,
  "Ġindust": 3249,
  "Ġindustry": 3872,
  "Ġinevit": 7303,
  "Ġinf": 1063,
  "Ġinfl": 3126,
  "Ġinflu": 4232,
  "Ġinfluence": 5576,
  "Ġinfo": 3393,
  "Ġinform": 2068,
  "Ġinformation": 2447,
  "Ġing": 5136,
  "Ġinherent": 7315,
  "Ġinit": 3604,
  "Ġinitial": 5826,
  "Ġinj": 3243,
  "Ġinjured": 7219,
  "Ġinjury": 5481,
  "Ġinn": 4477,
  "Ġinnoc": 5075,
  "Ġinnocent": 5774,
  "Ġinput": 5392,
  "Ġins": 1075,
  "Ġinsan": 6971,
  "Ġinsane": 3540,
  "Ġinside": 2687,
  "Ġinsight": 7680,
  "Ġinsist": 7570,
  "Ġinsp": 6452,
  "Ġinst": 942,
  "Ġinstall": 3188,
  "Ġinstalled": 6789,
  "Ġinstance": 4994,
  "Ġinstant": 6380,
  "Ġinstantly": 5615,
  "Ġinstead": 1326,
  "Ġinstr": 7889,
  "Ġinstruct": 7146,
  "Ġinsult": 5605,
  "Ġinsurance": 3446,
  "Ġint": 541,
  "Ġintegr": 5851,
  "Ġintell": 3707,
  "Ġintellig": 4422,
  "Ġintelligence": 7119,
  "Ġintelligent": 6959,
  "Ġintended": 5381,
  "Ġintense": 7168,
  "Ġintent": 5778,
  "Ġintention": 4625,
  "Ġinter": 1060,
  "Ġinteract": 4880,
  "Ġinterest": 1107,
  "Ġinterested": 2169,
  "Ġinteresting": 1926,
  "Ġinterests": 6249,
  "Ġintern": 1781,
  "Ġinternal": 7458,
  "Ġinternational": 6203,
  "Ġinternet": 2436,
  "Ġinterpret": 7294,
  "Ġinterview": 3457,
  "Ġinto": 671,
  "Ġintroduc": 4469,
  "Ġintroduced": 7834,
  "Ġinv": 1109,
  "Ġinvent": 5135,
  "Ġinvest": 2188,
  "Ġinvestig": 4664,
  "Ġinvestigation": 7607,
  "Ġinvestment": 6057,
  "Ġinvol": 2332,
  "Ġinvolve": 7572,
  "Ġinvolved": 3076,
  "Ġir": 2113,
  "Ġiron": 4687,
  "Ġirre": 4921,
  "Ġirrelevant": 6577,
  "Ġis": 315,
  "Ġisland": 7498,
  "Ġisn": 839,
  "Ġisnt": 4496,
  "Ġiss": 1077,
  "Ġissue": 1470,
  "Ġissues": 1801,
  "Ġit": 312,
  "Ġitem": 3299,
  "Ġitems": 2775,
  "Ġits": 856,
  "Ġitself": 2350,
  "Ġive": 7110,
  "Ġj": 364,
  "Ġjack": 4497,
  "Ġjail": 4536,
  "Ġje": 5223,
  "Ġjealous": 6636,
  "Ġjer": 4018,
  "Ġjerk": 7006,
  "Ġjo": 784,
  "Ġjob": 1062,
  "Ġjobs": 2825,
  "Ġjoin": 3910,
  "Ġjoined": 7818,
  "Ġjoke": 2257,
  "Ġjokes": 4867,
  "Ġjoking": 6910,
  "Ġjour": 5078,
  "Ġjournal": 7707,
  "Ġjoy": 7667,
  "Ġju": 4716,
  "Ġjud": 2572,
  "Ġjudge": 3702,
  "Ġjuice": 6769,
  "Ġjump": 2512,
  "Ġjumping": 6872,
  "Ġjun": 5385,
  "Ġjung": 7827,
  "Ġjungle": 6960,
  "Ġjunk": 7356,
  "Ġjust": 404,
  "Ġjustice": 5719,
  "Ġjustify": 5588,
  "Ġk": 387,
  "Ġkarma": 5848,
  "Ġke": 751,
  "Ġkeep": 919,
  "Ġkeeping": 3474,
  "Ġkeeps": 3654,
  "Ġkept": 2907,
  "Ġket": 7422,
  "Ġkey": 2377,
  "Ġkeyboard": 5967,
  "Ġkeys": 4954,
  "Ġkick": 2935,
  "Ġkicked": 5842,
  "Ġkid": 1028,
  "Ġkidding": 7224,
  "Ġkids": 1444,
  "Ġkill": 1000,
  "Ġkilled": 2421,
  "Ġkiller": 6893,
  "Ġkilling": 3096,
  "Ġkills": 4082,
  "Ġkind": 906,
  "Ġkinda": 2118,
  "Ġkinds": 5449,
  "Ġking": 5212,
  "Ġkiss": 6315,
  "Ġkit": 3449,
  "Ġkitchen": 6676,
  "Ġkn": 492,
  "Ġknee": 7733,
  "Ġknew": 2080,
  "Ġknife": 5773,
  "Ġknock": 4305,
  "Ġknow": 513,
  "Ġknowing": 3149,
  "Ġknowledge": 3212,
  "Ġknown": 2731,
  "Ġknows": 2111,
  "Ġl": 293,
  "Ġla": 2457,
  "Ġlab": 2697,
  "Ġlabel": 5771,
  "Ġlabor": 6416,
  "Ġlack": 2481,
  "Ġlad": 3085,
  "Ġlady": 4583,
  "Ġlag": 5821,
  "Ġlaid": 6730,
  "Ġlan": 5650,
  "Ġland": 2195,
  "Ġlane": 3712,
  "Ġlanes": 7841,
  "Ġlangu": 2764,
  "Ġlanguage": 3244,
  "Ġlanguages": 7331,
  "Ġlapt": 4802,
  "Ġlaptop": 5412,
  "Ġlar": 1542,
  "Ġlarge": 1966,
  "Ġlargely": 7799,
  "Ġlarger": 4111,
  "Ġlargest": 7913,
  "Ġlas": 6881,
  "Ġlast": 933,
  "Ġlat": 3839,
  "Ġlate": 2408,
  "Ġlately": 5309,
  "Ġlater": 1698,
  "Ġlatest": 6897,
  "Ġlatter": 7684,
  "Ġlau": 4540,
  "Ġlaug": 5930,
  "Ġlaugh": 2964,
  "Ġlaughed": 7334,
  "Ġlaughing": 6215,
  "Ġlaun": 5887,
  "Ġlaunch": 4788,
  "Ġlaw": 1506,
  "Ġlaws": 3118,
  "Ġlawy": 5139,
  "Ġlawyer": 6490,
  "Ġlay": 3206,
  "Ġlaz": 4102,
  "Ġlazy": 4457,
  "Ġle": 475,
  "Ġlea": 2295,
  "Ġlead": 1676,
  "Ġleader": 4953,
  "Ġleaders": 5413,
  "Ġleading": 6012,
  "Ġleads": 5707,
  "Ġleague": 2669,
  "Ġlean": 7842,
  "Ġlear": 3410,
  "Ġlearn": 1579,
  "Ġlearned": 3323,
  "Ġlearning": 3547,
  "Ġleast": 1042,
  "Ġleave": 1714,
  "Ġleaves": 4709,
  "Ġleaving": 3452,
  "Ġled": 5349,
  "Ġleft": 1261,
  "Ġleg": 1258,
  "Ġlegal": 2608,
  "Ġlegally": 6410,
  "Ġlegend": 4074,
  "Ġlegendary": 6896,
  "Ġlegisl": 7753,
  "Ġlegit": 2844,
  "Ġlegitimate": 5847,
  "Ġlegs": 5000,
  "Ġlength": 5450,
  "Ġless": 1057,
  "Ġlesson": 7393,
  "Ġlet": 939,
  "Ġlets": 4235,
  "Ġletter": 5497,
  "Ġletting": 4466,
  "Ġlevel": 1130,
  "Ġlevels": 3441,
  "Ġli": 369,
  "Ġliber": 3010,
  "Ġliberal": 4815,
  "Ġlibr": 5740,
  "Ġlibrary": 7021,
  "Ġlic": 4154,
  "Ġlicense": 5695,
  "Ġlie": 3869,
  "Ġlies": 6454,
  "Ġlif": 3152,
  "Ġlife": 969,
  "Ġlifest": 7218,
  "Ġlift": 7248,
  "Ġlight": 1589,
  "Ġlights": 4869,
  "Ġlike": 398,
  "Ġliked": 3039,
  "Ġlikely": 1501,
  "Ġlikes": 3821,
  "Ġliking": 7585,
  "Ġlim": 1918,
  "Ġlimit": 3548,
  "Ġlimited": 3760,
  "Ġlimits": 7477,
  "Ġlin": 6469,
  "Ġline": 1536,
  "Ġlines": 3312,
  "Ġlink": 2442,
  "Ġlinked": 7595,
  "Ġlinks": 7217,
  "Ġlip": 7999,
  "Ġliqu": 5429,
  "Ġliquid": 7001,
  "Ġlist": 1246,
  "Ġlisted": 5685,
  "Ġlisten": 2240,
  "Ġlistening": 4926,
  "Ġlit": 768,
  "Ġliterally": 1615,
  "Ġlittle": 960,
  "Ġlive": 1248,
  "Ġlived": 3650,
  "Ġlives": 2704,
  "Ġliving": 2109,
  "Ġlmao": 5516,
  "Ġlo": 530,
  "Ġload": 2677,
  "Ġloan": 6501,
  "Ġlob": 7520,
  "Ġloc": 1659,
  "Ġlocal": 2533,
  "Ġlocation": 4665,
  "Ġlock": 2932,
  "Ġlocked": 5200,
  "Ġlog": 2180,
  "Ġlogic": 4106,
  "Ġlogical": 6948,
  "Ġlol": 1410,
  "Ġlone": 7941,
  "Ġlong": 816,
  "Ġlonger": 2086,
  "Ġloo": 603,
  "Ġlook": 815,
  "Ġlooked": 2261,
  "Ġlooking": 1190,
  "Ġlooks": 1324,
  "Ġloop": 6954,
  "Ġloose": 5861,
  "Ġloot": 5190,
  "Ġlore": 7160,
  "Ġlose": 1913,
  "Ġloses": 6861,
  "Ġlosing": 3140,
  "Ġloss": 3073,
  "Ġlost": 1826,
  "Ġlot": 699,
  "Ġlots": 2815,
  "Ġloud": 4414,
  "Ġlove": 913,
  "Ġloved": 3037,
  "Ġloves": 4813,
  "Ġloving": 6588,
  "Ġlow": 1544,
  "Ġlower": 2440,
  "Ġlowest": 7481,
  "Ġluck": 1751,
  "Ġlucky": 3544,
  "Ġlunch": 5344,
  "Ġlvl": 6124,
  "Ġlying": 4724,
  "Ġm": 279,
  "Ġma": 423,
  "Ġmac": 5261,
  "Ġmach": 2831,
  "Ġmachine": 3730,
  "Ġmachines": 6546,
  "Ġmad": 3215,
  "Ġmade": 901,
  "Ġmag": 2033,
  "Ġmagic": 3668,
  "Ġmail": 5799,
  "Ġmain": 1650,
  "Ġmainly": 5518,
  "Ġmaint": 3438,
  "Ġmaintain": 4435,
  "Ġmaintenance": 7588,
  "Ġmajor": 1665,
  "Ġmajority": 2737,
  "Ġmake": 627,
  "Ġmakes": 998,
  "Ġmakeup": 7237,
  "Ġmaking": 1151,
  "Ġmal": 5678,
  "Ġmale": 3153,
  "Ġman": 588,
  "Ġmana": 5285,
  "Ġmanag": 2499,
  "Ġmanage": 3133,
  "Ġmanaged": 4539,
  "Ġmanagement": 5092,
  "Ġmanager": 4365,
  "Ġmand": 6836,
  "Ġmanip": 5579,
  "Ġmanner": 7165,
  "Ġmanual": 6071,
  "Ġmanufact": 5487,
  "Ġmanufacture": 7852,
  "Ġmany": 847,
  "Ġmap": 2908,
  "Ġmaps": 4934,
  "Ġmar": 1457,
  "Ġmarijuana": 7524,
  "Ġmark": 1611,
  "Ġmarket": 2001,
  "Ġmarketing": 6031,
  "Ġmarriage": 4298,
  "Ġmarried": 3734,
  "Ġmarry": 7143,
  "Ġmass": 2057,
  "Ġmassive": 3201,
  "Ġmast": 6483,
  "Ġmaster": 4162,
  "Ġmasturb": 7963,
  "Ġmat": 869,
  "Ġmatch": 2246,
  "Ġmatches": 4511,
  "Ġmate": 5188,
  "Ġmaterial": 3497,
  "Ġmaterials": 7473,
  "Ġmath": 4623,
  "Ġmatter": 1476,
  "Ġmatters": 4608,
  "Ġmax": 2676,
  "Ġmaxim": 6194,
  "Ġmay": 778,
  "Ġmaybe": 1161,
  "Ġme": 383,
  "Ġmeal": 5818,
  "Ġmean": 845,
  "Ġmeaning": 3075,
  "Ġmeans": 1361,
  "Ġmeant": 2294,
  "Ġmeas": 6517,
  "Ġmeasure": 6150,
  "Ġmeat": 3597,
  "Ġmechan": 2952,
  "Ġmechanic": 7046,
  "Ġmechanics": 5118,
  "Ġmed": 1290,
  "Ġmedi": 7068,
  "Ġmedia": 2629,
  "Ġmedic": 5398,
  "Ġmedical": 3967,
  "Ġmedium": 6264,
  "Ġmeet": 2273,
  "Ġmeeting": 5240,
  "Ġmelee": 6173,
  "Ġmelt": 7982,
  "Ġmem": 1451,
  "Ġmember": 4588,
  "Ġmembers": 3362,
  "Ġmeme": 4995,
  "Ġmemes": 7232,
  "Ġmemories": 7594,
  "Ġmemory": 4326,
  "Ġmen": 1628,
  "Ġment": 2329,
  "Ġmental": 3646,
  "Ġmentality": 7460,
  "Ġmentally": 7014,
  "Ġmention": 1630,
  "Ġmentioned": 2795,
  "Ġmenu": 6414,
  "Ġmer": 4151,
  "Ġmess": 1709,
  "Ġmessage": 3261,
  "Ġmessages": 6564,
  "Ġmessed": 7370,
  "Ġmet": 1286,
  "Ġmeta": 4640,
  "Ġmetal": 4491,
  "Ġmeth": 3168,
  "Ġmethod": 3688,
  "Ġmic": 3508,
  "Ġmicro": 5703,
  "Ġmid": 1483,
  "Ġmiddle": 2357,
  "Ġmight": 947,
  "Ġmil": 1822,
  "Ġmild": 7851,
  "Ġmile": 6349,
  "Ġmiles": 4350,
  "Ġmilitary": 3402,
  "Ġmilk": 5053,
  "Ġmill": 1986,
  "Ġmillion": 2748,
  "Ġmillions": 4713,
  "Ġmin": 930,
  "Ġmind": 1238,
  "Ġminds": 7578,
  "Ġmine": 2277,
  "Ġmini": 6019,
  "Ġminim": 2916,
  "Ġminimal": 7775,
  "Ġminimum": 3858,
  "Ġminor": 3166,
  "Ġminority": 5942,
  "Ġmins": 7622,
  "Ġminut": 1438,
  "Ġminute": 3434,
  "Ġminutes": 1759,
  "Ġmir": 4630,
  "Ġmirror": 7676,
  "Ġmis": 2135,
  "Ġmiss": 1239,
  "Ġmissed": 3466,
  "Ġmissing": 2794,
  "Ġmission": 5100,
  "Ġmissions": 6526,
  "Ġmist": 2438,
  "Ġmistake": 3751,
  "Ġmistakes": 5617,
  "Ġmisunder": 7873,
  "Ġmix": 2897,
  "Ġmixed": 5792,
  "Ġmo": 379,
  "Ġmob": 3479,
  "Ġmobile": 4990,
  "Ġmod": 1049,
  "Ġmode": 3155,
  "Ġmodel": 3392,
  "Ġmodels": 5837,
  "Ġmodern": 3745,
  "Ġmods": 3609,
  "Ġmom": 1339,
  "Ġmoment": 2196,
  "Ġmoments": 6045,
  "Ġmon": 909,
  "Ġmoney": 953,
  "Ġmonitor": 5896,
  "Ġmonster": 5121,
  "Ġmonsters": 6994,
  "Ġmonth": 1091,
  "Ġmonths": 1474,
  "Ġmood": 7611,
  "Ġmoon": 6087,
  "Ġmor": 1825,
  "Ġmoral": 6034,
  "Ġmore": 500,
  "Ġmorning": 3021,
  "Ġmort": 5825,
  "Ġmost": 685,
  "Ġmostly": 2368,
  "Ġmot": 2464,
  "Ġmother": 2279,
  "Ġmotion": 7697,
  "Ġmotiv": 4748,
  "Ġmotor": 5684,
  "Ġmount": 3949,
  "Ġmountain": 7958,
  "Ġmouse": 5709,
  "Ġmouth": 3699,
  "Ġmove": 1334,
  "Ġmoved": 3241,
  "Ġmovement": 4150,
  "Ġmoves": 4218,
  "Ġmovie": 1727,
  "Ġmovies": 2842,
  "Ġmoving": 2855,
  "Ġmuch": 602,
  "Ġmult": 1829,
  "Ġmulti": 6847,
  "Ġmultip": 2182,
  "Ġmultiplayer": 7030,
  "Ġmultiple": 2617,
  "Ġmur": 2927,
  "Ġmurd": 5073,
  "Ġmurder": 4467,
  "Ġmus": 1685,
  "Ġmuscle": 6445,
  "Ġmusic": 2144,
  "Ġmust": 1649,
  "Ġmut": 4855,
  "Ġmy": 395,
  "Ġmyself": 1405,
  "Ġmyster": 7669,
  "Ġmyth": 6557,
  "Ġn": 301,
  "Ġna": 4865,
  "Ġnail": 7153,
  "Ġnaked": 7348,
  "Ġname": 1356,
  "Ġnamed": 4927,
  "Ġnames": 3755,
  "Ġnar": 7847,
  "Ġnarr": 5324,
  "Ġnarrative": 6555,
  "Ġnasty": 7677,
  "Ġnation": 4558,
  "Ġnational": 4204,
  "Ġnations": 7998,
  "Ġnative": 6936,
  "Ġnatur": 3042,
  "Ġnatural": 3831,
  "Ġnaturally": 6458,
  "Ġnature": 3992,
  "Ġne": 401,
  "Ġnear": 2115,
  "Ġnearly": 3141,
  "Ġneat": 7725,
  "Ġnec": 1917,
  "Ġnecess": 2345,
  "Ġnecessarily": 4117,
  "Ġnecessary": 3644,
  "Ġneck": 5008,
  "Ġneed": 612,
  "Ġneeded": 2199,
  "Ġneeds": 1486,
  "Ġneg": 2211,
  "Ġnegative": 3216,
  "Ġnegot": 7500,
  "Ġneigh": 3575,
  "Ġneighb": 6539,
  "Ġneighbor": 4850,
  "Ġneighborhood": 6623,
  "Ġneither": 4727,
  "Ġner": 2843,
  "Ġnerf": 4256,
  "Ġnerv": 7013,
  "Ġnervous": 7194,
  "Ġnet": 2630,
  "Ġnetwork": 4622,
  "Ġneut": 5072,
  "Ġneutral": 6708,
  "Ġnever": 716,
  "Ġnew": 734,
  "Ġnewer": 7330,
  "Ġnews": 2425,
  "Ġnext": 1116,
  "Ġnic": 4620,
  "Ġnice": 1305,
  "Ġnight": 1430,
  "Ġnightm": 6720,
  "Ġnightmare": 7979,
  "Ġnights": 7929,
  "Ġno": 528,
  "Ġnobody": 2965,
  "Ġnoise": 5633,
  "Ġnom": 6781,
  "Ġnon": 1734,
  "Ġnone": 3269,
  "Ġnons": 6006,
  "Ġnonsense": 6606,
  "Ġnor": 4189,
  "Ġnorm": 1559,
  "Ġnormal": 1968,
  "Ġnormally": 4333,
  "Ġnorth": 6498,
  "Ġnose": 6107,
  "Ġnot": 368,
  "Ġnote": 3164,
  "Ġnotes": 6419,
  "Ġnothing": 1101,
  "Ġnotice": 2890,
  "Ġnoticed": 3232,
  "Ġnovel": 6275,
  "Ġnow": 644,
  "Ġnowadays": 7783,
  "Ġnowhere": 5422,
  "Ġnu": 5490,
  "Ġnuclear": 6343,
  "Ġnumb": 2814,
  "Ġnumber": 1802,
  "Ġnumbers": 3008,
  "Ġnur": 5343,
  "Ġnut": 5454,
  "Ġnuts": 5567,
  "Ġo": 291,
  "Ġob": 1045,
  "Ġobject": 3077,
  "Ġobjective": 7263,
  "Ġoblig": 7277,
  "Ġobs": 4427,
  "Ġobtain": 7756,
  "Ġobv": 1704,
  "Ġobvious": 2987,
  "Ġobviously": 2391,
  "Ġocc": 2397,
  "Ġoccas": 3898,
  "Ġoccasionally": 6687,
  "Ġoccur": 5304,
  "Ġodd": 3211,
  "Ġodds": 7054,
  "Ġof": 306,
  "Ġoff": 597,
  "Ġoffended": 6767,
  "Ġoffense": 4324,
  "Ġoffensive": 4791,
  "Ġoffer": 2652,
  "Ġoffered": 5365,
  "Ġoffering": 6857,
  "Ġoffers": 6207,
  "Ġoffic": 2524,
  "Ġoffice": 3167,
  "Ġofficer": 5898,
  "Ġofficial": 4364,
  "Ġoften": 1645,
  "Ġoh": 3628,
  "Ġoil": 3291,
  "Ġok": 1609,
  "Ġokay": 2488,
  "Ġol": 7766,
  "Ġold": 983,
  "Ġolder": 2978,
  "Ġom": 7761,
  "Ġon": 324,
  "Ġonce": 1202,
  "Ġone": 487,
  "Ġones": 1540,
  "Ġonline": 2250,
  "Ġonly": 580,
  "Ġonto": 3700,
  "Ġop": 910,
  "Ġopen": 1308,
  "Ġopened": 5389,
  "Ġopening": 4966,
  "Ġoper": 3346,
  "Ġopin": 1508,
  "Ġopinion": 1743,
  "Ġopinions": 4310,
  "Ġopp": 1411,
  "Ġoppon": 3783,
  "Ġopponent": 4837,
  "Ġopponents": 7650,
  "Ġopportun": 3482,
  "Ġopportunity": 4292,
  "Ġoppos": 2954,
  "Ġopposed": 5331,
  "Ġopposite": 3736,
  "Ġopt": 1390,
  "Ġoptim": 5013,
  "Ġoption": 2321,
  "Ġoptions": 2945,
  "Ġor": 400,
  "Ġorange": 6696,
  "Ġord": 3078,
  "Ġorder": 1831,
  "Ġordered": 5416,
  "Ġorders": 6615,
  "Ġorg": 6259,
  "Ġorgan": 2913,
  "Ġorganization": 6363,
  "Ġorig": 1947,
  "Ġorigin": 4406,
  "Ġoriginal": 2427,
  "Ġoriginally": 6214,
  "Ġother": 564,
  "Ġothers": 1597,
  "Ġotherwise": 2944,
  "Ġour": 852,
  "Ġourselves": 6616,
  "Ġout": 448,
  "Ġoutcome": 7536,
  "Ġoutput": 7736,
  "Ġoutside": 2038,
  "Ġover": 631,
  "Ġoverall": 3519,
  "Ġoverwhel": 6864,
  "Ġown": 877,
  "Ġowned": 5393,
  "Ġowner": 4437,
  "Ġowners": 4572,
  "Ġp": 286,
  "Ġpa": 6149,
  "Ġpace": 7264,
  "Ġpack": 2091,
  "Ġpackage": 5886,
  "Ġpacks": 5911,
  "Ġpad": 7306,
  "Ġpage": 3181,
  "Ġpages": 7529,
  "Ġpaid": 2225,
  "Ġpain": 1758,
  "Ġpainful": 6955,
  "Ġpaint": 5112,
  "Ġpair": 4076,
  "Ġpal": 5866,
  "Ġpan": 3171,
  "Ġpanic": 7896,
  "Ġpants": 5272,
  "Ġpaper": 3157,
  "Ġpar": 1735,
  "Ġparent": 1608,
  "Ġparents": 1871,
  "Ġpark": 4069,
  "Ġparking": 5726,
  "Ġpart": 717,
  "Ġpartic": 2591,
  "Ġparticip": 5616,
  "Ġparticular": 3416,
  "Ġparticularly": 4395,
  "Ġparties": 4923,
  "Ġpartner": 4538,
  "Ġpartners": 7788,
  "Ġparts": 2909,
  "Ġparty": 2056,
  "Ġpass": 1296,
  "Ġpassed": 4367,
  "Ġpasses": 7508,
  "Ġpassing": 5439,
  "Ġpassion": 6697,
  "Ġpassive": 5950,
  "Ġpassword": 7709,
  "Ġpast": 1569,
  "Ġpat": 1867,
  "Ġpatch": 4351,
  "Ġpath": 3979,
  "Ġpathetic": 7141,
  "Ġpatient": 6418,
  "Ġpattern": 5776,
  "Ġpay": 973,
  "Ġpaying": 2587,
  "Ġpayment": 6951,
  "Ġpays": 6937,
  "Ġpc": 5756,
  "Ġpe": 2029,
  "Ġpeace": 4556,
  "Ġped": 4276,
  "Ġpee": 6285,
  "Ġpen": 2328,
  "Ġpenalty": 7470,
  "Ġpenis": 6121,
  "Ġpeop": 7757,
  "Ġpeople": 469,
  "Ġper": 766,
  "Ġpercent": 4207,
  "Ġpercentage": 6220,
  "Ġperf": 1288,
  "Ġperfect": 1794,
  "Ġperfectly": 3589,
  "Ġperform": 2282,
  "Ġperformance": 3459,
  "Ġperhaps": 3891,
  "Ġperiod": 3130,
  "Ġperman": 5374,
  "Ġpermanent": 7270,
  "Ġpers": 3260,
  "Ġperson": 800,
  "Ġpersonal": 2323,
  "Ġpersonality": 5318,
  "Ġpersonally": 2444,
  "Ġperspect": 3873,
  "Ġperspective": 4029,
  "Ġpet": 3692,
  "Ġph": 965,
  "Ġpha": 5040,
  "Ġphase": 6296,
  "Ġphilos": 6138,
  "Ġphilosoph": 6628,
  "Ġphone": 1782,
  "Ġphones": 4958,
  "Ġphot": 2565,
  "Ġphoto": 4721,
  "Ġphotos": 5370,
  "Ġphr": 6043,
  "Ġphrase": 7980,
  "Ġphys": 2193,
  "Ġphysical": 3270,
  "Ġphysically": 5635,
  "Ġphysics": 7503,
  "Ġpic": 5347,
  "Ġpick": 1385,
  "Ġpicked": 3676,
  "Ġpicking": 4901,
  "Ġpicks": 5383,
  "Ġpics": 6376,
  "Ġpict": 1896,
  "Ġpicture": 2468,
  "Ġpictures": 3844,
  "Ġpiec": 2151,
  "Ġpiece": 2725,
  "Ġpieces": 4532,
  "Ġpil": 5768,
  "Ġpill": 5772,
  "Ġpilot": 7682,
  "Ġpin": 5152,
  "Ġpink": 7191,
  "Ġpir": 6272,
  "Ġpiss": 2656,
  "Ġpissed": 4222,
  "Ġpit": 4888,
  "Ġpitch": 7281,
  "Ġpizza": 4955,
  "Ġpl": 419,
  "Ġplace": 1157,
  "Ġplaced": 6506,
  "Ġplaces": 2648,
  "Ġplain": 6164,
  "Ġplan": 1306,
  "Ġplane": 5409,
  "Ġplanet": 4280,
  "Ġplanned": 6435,
  "Ġplanning": 4179,
  "Ġplans": 5018,
  "Ġplant": 5640,
  "Ġplants": 7256,
  "Ġplastic": 5280,
  "Ġplat": 3377,
  "Ġplate": 5959,
  "Ġplatform": 4358,
  "Ġplay": 525,
  "Ġplayed": 1522,
  "Ġplayer": 1408,
  "Ġplayers": 1256,
  "Ġplaying": 1204,
  "Ġplayoff": 4371,
  "Ġplayoffs": 5663,
  "Ġplays": 3258,
  "Ġple": 3805,
  "Ġplease": 2010,
  "Ġplenty": 3011,
  "Ġplot": 4239,
  "Ġplug": 6188,
  "Ġplus": 3290,
  "Ġpo": 486,
  "Ġpock": 4749,
  "Ġpocket": 5830,
  "Ġpod": 5734,
  "Ġpodcast": 7144,
  "Ġpoint": 759,
  "Ġpointed": 6126,
  "Ġpointing": 6155,
  "Ġpointless": 6427,
  "Ġpoints": 2103,
  "Ġpoison": 6638,
  "Ġpoke": 4382,
  "Ġpokemon": 5691,
  "Ġpol": 1092,
  "Ġpolic": 3062,
  "Ġpolice": 2504,
  "Ġpolicies": 6507,
  "Ġpolicy": 4056,
  "Ġpolit": 1799,
  "Ġpolitic": 4818,
  "Ġpolitical": 2985,
  "Ġpoliticians": 6450,
  "Ġpolitics": 4110,
  "Ġpoll": 5221,
  "Ġpoo": 7886,
  "Ġpool": 4335,
  "Ġpoor": 2053,
  "Ġpoorly": 5960,
  "Ġpop": 1402,
  "Ġpopular": 2640,
  "Ġpopulation": 3752,
  "Ġporn": 3693,
  "Ġport": 2549,
  "Ġportion": 6513,
  "Ġpos": 1520,
  "Ġposition": 2359,
  "Ġpositions": 6147,
  "Ġpositive": 3322,
  "Ġposs": 1154,
  "Ġpossibility": 5544,
  "Ġpossible": 1523,
  "Ġpossibly": 3074,
  "Ġpost": 867,
  "Ġposted": 2830,
  "Ġposter": 7705,
  "Ġposting": 3861,
  "Ġposts": 2723,
  "Ġpot": 1718,
  "Ġpotent": 2336,
  "Ġpotential": 2994,
  "Ġpotentially": 5196,
  "Ġpounds": 6464,
  "Ġpow": 3718,
  "Ġpower": 1251,
  "Ġpowerful": 3560,
  "Ġpowers": 5661,
  "Ġpr": 669,
  "Ġpra": 5880,
  "Ġpract": 2171,
  "Ġpractical": 7835,
  "Ġpractically": 7608,
  "Ġpractice": 3364,
  "Ġpray": 6491,
  "Ġpre": 529,
  "Ġprec": 5788,
  "Ġpred": 3405,
  "Ġpredict": 6063,
  "Ġpref": 4940,
  "Ġprefer": 2434,
  "Ġpreference": 7865,
  "Ġpregn": 3685,
  "Ġpregnancy": 7760,
  "Ġpregnant": 4794,
  "Ġprem": 4202,
  "Ġpremium": 7368,
  "Ġprep": 3826,
  "Ġprepared": 6404,
  "Ġpres": 1614,
  "Ġpresc": 7474,
  "Ġpresence": 7452,
  "Ġpresent": 3398,
  "Ġpresident": 3865,
  "Ġpress": 2207,
  "Ġpressure": 3900,
  "Ġpret": 3440,
  "Ġpretend": 5510,
  "Ġpretty": 774,
  "Ġprev": 1941,
  "Ġprevent": 3507,
  "Ġprevious": 3656,
  "Ġpreviously": 7488,
  "Ġpri": 1660,
  "Ġprice": 1847,
  "Ġprices": 3642,
  "Ġprim": 3187,
  "Ġprimary": 5026,
  "Ġprime": 6091,
  "Ġprincip": 6325,
  "Ġprint": 4891,
  "Ġprior": 3436,
  "Ġpriority": 7139,
  "Ġprison": 4393,
  "Ġpriv": 2471,
  "Ġprivate": 3511,
  "Ġprivile": 7204,
  "Ġpro": 454,
  "Ġprob": 6033,
  "Ġprobably": 868,
  "Ġproblem": 950,
  "Ġproblems": 2150,
  "Ġproced": 7678,
  "Ġproceed": 6873,
  "Ġprocess": 2204,
  "Ġproduc": 1456,
  "Ġproduce": 5575,
  "Ġproduct": 2249,
  "Ġproduction": 4633,
  "Ġproducts": 4216,
  "Ġprof": 1667,
  "Ġprofess": 2853,
  "Ġprofessional": 4249,
  "Ġprofile": 5749,
  "Ġprofit": 3991,
  "Ġprogram": 2256,
  "Ġprogramming": 7831,
  "Ġprograms": 5854,
  "Ġprogress": 3057,
  "Ġproject": 2772,
  "Ġprojects": 6900,
  "Ġprom": 2127,
  "Ġpromise": 6568,
  "Ġpromot": 5012,
  "Ġpron": 6359,
  "Ġproof": 3970,
  "Ġprop": 2664,
  "Ġpropag": 6863,
  "Ġpropaganda": 7599,
  "Ġproper": 1934,
  "Ġproperly": 3867,
  "Ġproperty": 4340,
  "Ġpros": 7082,
  "Ġprospect": 7800,
  "Ġprot": 1763,
  "Ġprote": 7118,
  "Ġprotect": 3226,
  "Ġprotection": 6054,
  "Ġprotein": 7823,
  "Ġprotest": 4800,
  "Ġproud": 4886,
  "Ġprov": 1898,
  "Ġprove": 4132,
  "Ġproven": 5687,
  "Ġprovide": 3391,
  "Ġprovided": 6737,
  "Ġps": 5470,
  "Ġpsy": 3265,
  "Ġpsych": 3591,
  "Ġpu": 7235,
  "Ġpub": 4325,
  "Ġpublic": 1931,
  "Ġpull": 1695,
  "Ġpulled": 4128,
  "Ġpulling": 5265,
  "Ġpump": 4708,
  "Ġpun": 2479,
  "Ġpunch": 5982,
  "Ġpunish": 4877,
  "Ġpunishment": 7032,
  "Ġpur": 1576,
  "Ġpurcha": 3065,
  "Ġpurchase": 4591,
  "Ġpure": 3660,
  "Ġpurely": 7582,
  "Ġpurp": 2834,
  "Ġpurple": 7937,
  "Ġpurpose": 3283,
  "Ġpurs": 7289,
  "Ġpus": 3083,
  "Ġpush": 2996,
  "Ġpushed": 5762,
  "Ġpushing": 4775,
  "Ġpuss": 6442,
  "Ġpussy": 7457,
  "Ġput": 876,
  "Ġputs": 4912,
  "Ġputting": 2678,
  "Ġq": 6839,
  "Ġqu": 614,
  "Ġqual": 3922,
  "Ġquality": 2264,
  "Ġquant": 7531,
  "Ġquarter": 6319,
  "Ġque": 3158,
  "Ġquest": 1027,
  "Ġquestion": 1297,
  "Ġquestions": 2498,
  "Ġquests": 7304,
  "Ġqueue": 7828,
  "Ġquick": 1728,
  "Ġquickly": 2809,
  "Ġquiet": 5116,
  "Ġquit": 3713,
  "Ġquite": 1492,
  "Ġquot": 7114,
  "Ġquote": 5670,
  "Ġr": 375,
  "Ġra": 2431,
  "Ġrac": 1820,
  "Ġrace": 2892,
  "Ġraces": 7245,
  "Ġracism": 5162,
  "Ġracist": 3091,
  "Ġrad": 3009,
  "Ġradio": 5966,
  "Ġrage": 6317,
  "Ġraid": 3549,
  "Ġrain": 4741,
  "Ġraise": 4653,
  "Ġraised": 5256,
  "Ġram": 5953,
  "Ġramp": 7751,
  "Ġran": 2305,
  "Ġrandom": 2197,
  "Ġrandomly": 6969,
  "Ġrang": 7136,
  "Ġrange": 2631,
  "Ġrank": 4642,
  "Ġranked": 5688,
  "Ġrant": 7656,
  "Ġrap": 3381,
  "Ġrape": 4181,
  "Ġraped": 7990,
  "Ġrare": 3512,
  "Ġrarely": 4859,
  "Ġrat": 5045,
  "Ġrate": 2771,
  "Ġrates": 5236,
  "Ġrather": 1447,
  "Ġrating": 5528,
  "Ġratio": 7861,
  "Ġrational": 6829,
  "Ġraw": 6877,
  "Ġre": 325,
  "Ġreach": 3747,
  "Ġreached": 7275,
  "Ġreact": 3893,
  "Ġreaction": 4182,
  "Ġread": 937,
  "Ġreading": 2314,
  "Ġready": 2800,
  "Ġreal": 791,
  "Ġrealise": 7045,
  "Ġrealistic": 6266,
  "Ġreality": 3227,
  "Ġrealize": 2200,
  "Ġrealized": 3480,
  "Ġreally": 551,
  "Ġreason": 896,
  "Ġreasonable": 3759,
  "Ġreasoning": 7096,
  "Ġreasons": 2575,
  "Ġreb": 3705,
  "Ġrec": 824,
  "Ġrecall": 5210,
  "Ġrece": 2409,
  "Ġreceive": 5310,
  "Ġreceived": 4843,
  "Ġrecent": 3813,
  "Ġrecently": 2540,
  "Ġrecogn": 3716,
  "Ġrecognize": 6246,
  "Ġrecommend": 2076,
  "Ġrecommended": 7762,
  "Ġrecord": 2339,
  "Ġrecords": 7724,
  "Ġrecover": 7600,
  "Ġrecru": 6295,
  "Ġred": 1242,
  "Ġreddit": 1991,
  "Ġreduc": 3161,
  "Ġreduce": 5879,
  "Ġref": 1155,
  "Ġrefer": 3583,
  "Ġrefere": 5274,
  "Ġreference": 4528,
  "Ġreferring": 5430,
  "Ġreflect": 5247,
  "Ġrefund": 7653,
  "Ġrefuse": 5345,
  "Ġrefused": 7075,
  "Ġreg": 1058,
  "Ġregard": 2494,
  "Ġregarding": 5824,
  "Ġregardless": 3584,
  "Ġregards": 7994,
  "Ġregion": 5746,
  "Ġregret": 5508,
  "Ġregul": 3528,
  "Ġregular": 2886,
  "Ġregularly": 5368,
  "Ġreject": 5531,
  "Ġrel": 935,
  "Ġrelated": 3523,
  "Ġrelation": 2007,
  "Ġrelationship": 2074,
  "Ġrelationships": 5727,
  "Ġrelative": 7658,
  "Ġrelatively": 4739,
  "Ġrelax": 6231,
  "Ġrele": 2035,
  "Ġrelease": 2623,
  "Ġreleased": 3470,
  "Ġrelevant": 4344,
  "Ġreliable": 6905,
  "Ġrelig": 2133,
  "Ġreligion": 3359,
  "Ġreligious": 3817,
  "Ġrely": 6943,
  "Ġrem": 984,
  "Ġremain": 3342,
  "Ġremaining": 7728,
  "Ġremem": 7183,
  "Ġremember": 1394,
  "Ġremind": 3403,
  "Ġreminds": 6856,
  "Ġremo": 1920,
  "Ġremove": 3555,
  "Ġremoved": 3722,
  "Ġremoving": 7326,
  "Ġrent": 3593,
  "Ġrep": 846,
  "Ġrepair": 7059,
  "Ġrepe": 3590,
  "Ġrepeat": 6176,
  "Ġrepeated": 6622,
  "Ġrepl": 1943,
  "Ġreplace": 3956,
  "Ġreplaced": 5410,
  "Ġreplacement": 6710,
  "Ġreplies": 7710,
  "Ġreply": 4037,
  "Ġreport": 2768,
  "Ġreported": 6531,
  "Ġreports": 7300,
  "Ġrepresent": 3714,
  "Ġrepublic": 5722,
  "Ġreput": 6634,
  "Ġreputation": 7875,
  "Ġrequ": 1467,
  "Ġrequest": 4199,
  "Ġrequire": 2191,
  "Ġrequired": 3810,
  "Ġrequirements": 7797,
  "Ġrequires": 4328,
  "Ġres": 754,
  "Ġrese": 2766,
  "Ġresearch": 3489,
  "Ġreset": 6095,
  "Ġresist": 4805,
  "Ġresources": 4297,
  "Ġresp": 1143,
  "Ġrespect": 2283,
  "Ġrespond": 3443,
  "Ġrespons": 2568,
  "Ġresponse": 3029,
  "Ġresponses": 7548,
  "Ġresponsibility": 5479,
  "Ġresponsible": 4602,
  "Ġrest": 1263,
  "Ġrestaur": 4171,
  "Ġrestaurant": 5445,
  "Ġrestrict": 5853,
  "Ġresult": 2173,
  "Ġresults": 3772,
  "Ġret": 1346,
  "Ġretail": 6463,
  "Ġretarded": 5622,
  "Ġretire": 6748,
  "Ġreturn": 2576,
  "Ġrev": 3445,
  "Ġreve": 4975,
  "Ġreveal": 5332,
  "Ġreven": 5144,
  "Ġrevenue": 7313,
  "Ġreview": 3338,
  "Ġreviews": 5993,
  "Ġreward": 4542,
  "Ġrewards": 6330,
  "Ġrich": 3711,
  "Ġrid": 1657,
  "Ġride": 3748,
  "Ġridiculous": 2598,
  "Ġriding": 6398,
  "Ġrif": 5101,
  "Ġrifle": 6822,
  "Ġrig": 6268,
  "Ġright": 675,
  "Ġrights": 3197,
  "Ġring": 4087,
  "Ġrip": 6983,
  "Ġris": 2380,
  "Ġrise": 6510,
  "Ġrisk": 3019,
  "Ġro": 736,
  "Ġroad": 2643,
  "Ġrob": 3932,
  "Ġrock": 3184,
  "Ġrocket": 7983,
  "Ġrole": 3240,
  "Ġroles": 7566,
  "Ġroll": 2312,
  "Ġrolling": 6497,
  "Ġrom": 5561,
  "Ġroom": 1809,
  "Ġroomm": 6998,
  "Ġroot": 5034,
  "Ġroster": 6596,
  "Ġrot": 4030,
  "Ġrough": 3929,
  "Ġroughly": 6747,
  "Ġround": 2757,
  "Ġrounds": 6717,
  "Ġrout": 2955,
  "Ġroute": 5355,
  "Ġroutine": 6625,
  "Ġrow": 5550,
  "Ġru": 1989,
  "Ġrub": 4657,
  "Ġrude": 5527,
  "Ġruin": 5608,
  "Ġruined": 6228,
  "Ġrul": 7291,
  "Ġrule": 3209,
  "Ġrules": 2626,
  "Ġrum": 5672,
  "Ġrun": 900,
  "Ġrunning": 1797,
  "Ġruns": 3623,
  "Ġrush": 5747,
  "Ġs": 268,
  "Ġsa": 591,
  "Ġsac": 4862,
  "Ġsacr": 5642,
  "Ġsad": 2028,
  "Ġsadly": 7233,
  "Ġsaf": 1880,
  "Ġsafe": 2628,
  "Ġsafety": 4327,
  "Ġsaid": 807,
  "Ġsake": 5081,
  "Ġsal": 1818,
  "Ġsalary": 6104,
  "Ġsale": 4238,
  "Ġsales": 3799,
  "Ġsalt": 5354,
  "Ġsalty": 7830,
  "Ġsame": 727,
  "Ġsan": 6646,
  "Ġsand": 3961,
  "Ġsandw": 6662,
  "Ġsarc": 6848,
  "Ġsat": 3086,
  "Ġsatisf": 4961,
  "Ġsauce": 7120,
  "Ġsave": 2301,
  "Ġsaved": 4638,
  "Ġsaving": 4015,
  "Ġsavings": 7921,
  "Ġsaw": 1661,
  "Ġsay": 575,
  "Ġsaying": 1074,
  "Ġsays": 1603,
  "Ġsc": 661,
  "Ġscale": 4349,
  "Ġscam": 6713,
  "Ġscan": 6815,
  "Ġscar": 7214,
  "Ġscared": 4233,
  "Ġscary": 4982,
  "Ġscen": 2021,
  "Ġscenario": 4943,
  "Ġscene": 3066,
  "Ġscenes": 6533,
  "Ġsch": 5669,
  "Ġsche": 7405,
  "Ġsched": 4267,
  "Ġschedule": 5494,
  "Ġscheme": 7923,
  "Ġschool": 1227,
  "Ġschools": 4458,
  "Ġscience": 3934,
  "Ġscient": 4914,
  "Ġscore": 3468,
  "Ġscr": 3960,
  "Ġscream": 4143,
  "Ġscreaming": 6399,
  "Ġscreen": 2552,
  "Ġscreens": 5555,
  "Ġscrew": 3458,
  "Ġscrewed": 6511,
  "Ġscript": 5326,
  "Ġse": 393,
  "Ġsea": 7551,
  "Ġsear": 5878,
  "Ġsearch": 4048,
  "Ġseason": 1387,
  "Ġseasons": 5172,
  "Ġseat": 4878,
  "Ġseats": 7563,
  "Ġsec": 989,
  "Ġsecond": 1205,
  "Ġseconds": 2995,
  "Ġsecret": 3941,
  "Ġsect": 6805,
  "Ġsection": 5038,
  "Ġsecure": 7855,
  "Ġsecurity": 3823,
  "Ġsee": 595,
  "Ġseed": 7258,
  "Ġseeing": 2004,
  "Ġseek": 7917,
  "Ġseem": 818,
  "Ġseemed": 3422,
  "Ġseems": 1127,
  "Ġseen": 1203,
  "Ġsees": 6047,
  "Ġselect": 3780,
  "Ġself": 1927,
  "Ġselfish": 7035,
  "Ġsell": 1575,
  "Ġselling": 3506,
  "Ġsem": 3920,
  "Ġsemi": 6545,
  "Ġsen": 5590,
  "Ġsend": 2179,
  "Ġsending": 5978,
  "Ġsens": 3311,
  "Ġsense": 1432,
  "Ġsensitive": 7369,
  "Ġsent": 2065,
  "Ġsentence": 5231,
  "Ġsepar": 3150,
  "Ġseparate": 4142,
  "Ġsequ": 6000,
  "Ġser": 814,
  "Ġseries": 2238,
  "Ġserious": 2342,
  "Ġseriously": 2303,
  "Ġserv": 2067,
  "Ġserve": 5906,
  "Ġserver": 3060,
  "Ġservers": 4468,
  "Ġservice": 2659,
  "Ġservices": 4808,
  "Ġset": 1018,
  "Ġsets": 4913,
  "Ġsetting": 2751,
  "Ġsettings": 4641,
  "Ġsettle": 6423,
  "Ġsetup": 4895,
  "Ġsever": 2452,
  "Ġseveral": 2531,
  "Ġsevere": 5435,
  "Ġsex": 1319,
  "Ġsexual": 3332,
  "Ġsexy": 6974,
  "Ġsh": 399,
  "Ġsha": 1002,
  "Ġshadow": 6957,
  "Ġshall": 5637,
  "Ġshame": 4153,
  "Ġshape": 4904,
  "Ġshar": 5066,
  "Ġshare": 2893,
  "Ġshared": 6800,
  "Ġsharing": 5175,
  "Ġsharp": 7463,
  "Ġshe": 617,
  "Ġshel": 7299,
  "Ġshell": 6393,
  "Ġshield": 4119,
  "Ġshif": 6825,
  "Ġshift": 5242,
  "Ġshiny": 6301,
  "Ġship": 3256,
  "Ġshipping": 5434,
  "Ġships": 5721,
  "Ġshirt": 5219,
  "Ġshit": 743,
  "Ġshitty": 2463,
  "Ġshock": 4552,
  "Ġshocked": 6990,
  "Ġshoes": 4922,
  "Ġshoot": 1899,
  "Ġshooting": 3763,
  "Ġshop": 2611,
  "Ġshopping": 7215,
  "Ġshort": 1792,
  "Ġshot": 1870,
  "Ġshotgun": 7686,
  "Ġshots": 4268,
  "Ġshould": 636,
  "Ġshoulder": 7398,
  "Ġshouldn": 2000,
  "Ġshout": 7199,
  "Ġshow": 886,
  "Ġshowed": 4121,
  "Ġshower": 5679,
  "Ġshowing": 3754,
  "Ġshown": 4787,
  "Ġshows": 2347,
  "Ġshr": 7745,
  "Ġshut": 3124,
  "Ġsi": 7453,
  "Ġsick": 2934,
  "Ġside": 1338,
  "Ġsides": 4279,
  "Ġsight": 6290,
  "Ġsign": 1359,
  "Ġsignal": 7912,
  "Ġsigned": 5397,
  "Ġsignific": 3200,
  "Ġsignificant": 4621,
  "Ġsignificantly": 5965,
  "Ġsigns": 6042,
  "Ġsil": 2983,
  "Ġsilly": 4257,
  "Ġsilver": 5863,
  "Ġsim": 970,
  "Ġsimilar": 1787,
  "Ġsimpl": 7182,
  "Ġsimple": 2422,
  "Ġsimply": 1971,
  "Ġsin": 6050,
  "Ġsince": 932,
  "Ġsing": 1363,
  "Ġsingle": 1512,
  "Ġsir": 7421,
  "Ġsister": 3806,
  "Ġsit": 1088,
  "Ġsite": 3295,
  "Ġsites": 5752,
  "Ġsitting": 3177,
  "Ġsitu": 1581,
  "Ġsituation": 1812,
  "Ġsituations": 4574,
  "Ġsix": 4420,
  "Ġsize": 2539,
  "Ġsk": 1025,
  "Ġske": 5554,
  "Ġskill": 1793,
  "Ġskills": 3349,
  "Ġskin": 2465,
  "Ġskins": 6700,
  "Ġskip": 6603,
  "Ġsky": 5004,
  "Ġsl": 915,
  "Ġsla": 6361,
  "Ġsleep": 2349,
  "Ġsleeping": 6098,
  "Ġslight": 2726,
  "Ġslightly": 3367,
  "Ġslot": 6304,
  "Ġslow": 2130,
  "Ġslower": 7266,
  "Ġslowly": 4421,
  "Ġsm": 925,
  "Ġsmall": 1316,
  "Ġsmaller": 3728,
  "Ġsmart": 2941,
  "Ġsmell": 3634,
  "Ġsmile": 6746,
  "Ġsmo": 1959,
  "Ġsmoke": 3859,
  "Ġsmoking": 4751,
  "Ġsmooth": 5914,
  "Ġsn": 1773,
  "Ġsna": 7302,
  "Ġsnap": 7181,
  "Ġsne": 5690,
  "Ġsnow": 4250,
  "Ġso": 394,
  "Ġsoci": 2589,
  "Ġsocial": 2070,
  "Ġsociety": 3003,
  "Ġsoft": 3005,
  "Ġsoftware": 4307,
  "Ġsol": 1533,
  "Ġsold": 2517,
  "Ġsoldiers": 7227,
  "Ġsole": 5975,
  "Ġsolid": 3027,
  "Ġsolo": 4050,
  "Ġsolution": 3690,
  "Ġsolve": 5819,
  "Ġsome": 459,
  "Ġsomebody": 4088,
  "Ġsomehow": 3084,
  "Ġsomeone": 770,
  "Ġsomet": 654,
  "Ġsomething": 681,
  "Ġsometimes": 1965,
  "Ġsomewhat": 4205,
  "Ġsomewhere": 2845,
  "Ġson": 3219,
  "Ġsong": 2449,
  "Ġsongs": 4725,
  "Ġsoon": 1836,
  "Ġsooner": 7402,
  "Ġsorry": 2016,
  "Ġsort": 1669,
  "Ġsorts": 7015,
  "Ġsou": 3558,
  "Ġsoul": 5601,
  "Ġsouls": 7922,
  "Ġsound": 1128,
  "Ġsounds": 1721,
  "Ġsource": 3252,
  "Ġsources": 6338,
  "Ġsouth": 5428,
  "Ġsp": 508,
  "Ġspace": 2247,
  "Ġspam": 4890,
  "Ġspare": 7874,
  "Ġspawn": 4717,
  "Ġspe": 1170,
  "Ġspeak": 2387,
  "Ġspeaking": 4271,
  "Ġspec": 1136,
  "Ġspecial": 2304,
  "Ġspecies": 6449,
  "Ġspecific": 2530,
  "Ġspecifically": 3423,
  "Ġspect": 5893,
  "Ġspeech": 4506,
  "Ġspeed": 2083,
  "Ġspell": 2799,
  "Ġspells": 6250,
  "Ġspend": 1637,
  "Ġspending": 3701,
  "Ġspent": 2634,
  "Ġspin": 5022,
  "Ġspir": 4627,
  "Ġspirit": 5923,
  "Ġspl": 7257,
  "Ġsplit": 3814,
  "Ġspoil": 4446,
  "Ġsport": 4674,
  "Ġsports": 4083,
  "Ġspot": 2579,
  "Ġspots": 6579,
  "Ġspr": 5585,
  "Ġspray": 6927,
  "Ġspread": 3852,
  "Ġspring": 7213,
  "Ġsqu": 2266,
  "Ġsquad": 5529,
  "Ġst": 346,
  "Ġstab": 6148,
  "Ġstable": 6351,
  "Ġstack": 5316,
  "Ġstadium": 7839,
  "Ġstaff": 4404,
  "Ġstage": 4302,
  "Ġstand": 1280,
  "Ġstandard": 2968,
  "Ġstandards": 5335,
  "Ġstanding": 4308,
  "Ġstands": 5720,
  "Ġstar": 2337,
  "Ġstars": 5954,
  "Ġstart": 740,
  "Ġstarted": 1376,
  "Ġstarter": 7833,
  "Ġstarting": 2428,
  "Ġstarts": 3246,
  "Ġstat": 1837,
  "Ġstate": 1770,
  "Ġstated": 5228,
  "Ġstatement": 4031,
  "Ġstates": 3263,
  "Ġstation": 4944,
  "Ġstats": 3737,
  "Ġstatus": 4981,
  "Ġstay": 1577,
  "Ġstayed": 6396,
  "Ġstaying": 5446,
  "Ġstays": 7325,
  "Ġste": 1760,
  "Ġsteal": 3957,
  "Ġstealing": 7527,
  "Ġsteam": 5024,
  "Ġsteel": 6867,
  "Ġstep": 2378,
  "Ġsteps": 6096,
  "Ġstere": 5867,
  "Ġstereoty": 6547,
  "Ġstick": 2371,
  "Ġstill": 658,
  "Ġstock": 3317,
  "Ġstolen": 7845,
  "Ġstom": 5091,
  "Ġstomach": 6947,
  "Ġstone": 6174,
  "Ġstop": 1093,
  "Ġstopped": 3018,
  "Ġstopping": 6604,
  "Ġstops": 6081,
  "Ġstorage": 6985,
  "Ġstore": 1855,
  "Ġstores": 5187,
  "Ġstories": 3430,
  "Ġstorm": 6029,
  "Ġstory": 1347,
  "Ġstr": 966,
  "Ġstra": 1729,
  "Ġstraight": 2132,
  "Ġstrange": 4236,
  "Ġstranger": 7862,
  "Ġstrate": 3959,
  "Ġstrategy": 5006,
  "Ġstraw": 7634,
  "Ġstre": 2020,
  "Ġstream": 2685,
  "Ġstreaming": 7337,
  "Ġstreet": 3767,
  "Ġstreng": 4013,
  "Ġstrength": 4287,
  "Ġstress": 4362,
  "Ġstretch": 6585,
  "Ġstri": 2666,
  "Ġstrict": 6227,
  "Ġstrike": 6101,
  "Ġstring": 7884,
  "Ġstrong": 1691,
  "Ġstronger": 4690,
  "Ġstrongly": 7516,
  "Ġstruct": 4952,
  "Ġstructure": 6808,
  "Ġstrugg": 3308,
  "Ġstruggle": 5556,
  "Ġstruggling": 6770,
  "Ġstuck": 3288,
  "Ġstud": 1616,
  "Ġstudent": 3841,
  "Ġstudents": 3868,
  "Ġstudy": 4769,
  "Ġstuff": 1111,
  "Ġstun": 5918,
  "Ġstupid": 1651,
  "Ġsty": 7513,
  "Ġstyle": 2860,
  "Ġsu": 441,
  "Ġsub": 908,
  "Ġsubject": 3531,
  "Ġsubmit": 7048,
  "Ġsubreddit": 2746,
  "Ġsubs": 4464,
  "Ġsubsc": 5271,
  "Ġsubst": 4578,
  "Ġsuc": 1541,
  "Ġsucceed": 7372,
  "Ġsuccess": 2432,
  "Ġsuccessful": 4454,
  "Ġsuch": 1208,
  "Ġsuck": 2703,
  "Ġsucked": 7055,
  "Ġsucks": 2862,
  "Ġsudden": 3420,
  "Ġsuddenly": 4255,
  "Ġsuff": 2951,
  "Ġsuffer": 6274,
  "Ġsuffering": 6661,
  "Ġsugar": 5713,
  "Ġsuggest": 1873,
  "Ġsuggested": 6775,
  "Ġsuggesting": 7638,
  "Ġsuggestion": 6812,
  "Ġsuggestions": 6099,
  "Ġsuic": 4699,
  "Ġsuicide": 5580,
  "Ġsuit": 4520,
  "Ġsumm": 4353,
  "Ġsummer": 3758,
  "Ġsummon": 7321,
  "Ġsun": 3797,
  "Ġsup": 6229,
  "Ġsuper": 1330,
  "Ġsuperior": 5511,
  "Ġsupp": 878,
  "Ġsupply": 5235,
  "Ġsupport": 1254,
  "Ġsupported": 7415,
  "Ġsupporters": 5917,
  "Ġsupporting": 5586,
  "Ġsupports": 6431,
  "Ġsuppose": 4245,
  "Ġsupposed": 2025,
  "Ġsur": 1113,
  "Ġsure": 758,
  "Ġsurely": 6987,
  "Ġsurface": 6159,
  "Ġsurger": 5645,
  "Ġsurgery": 6125,
  "Ġsurpr": 1911,
  "Ġsurprise": 5037,
  "Ġsurprised": 2698,
  "Ġsurprising": 5539,
  "Ġsurround": 5584,
  "Ġsurv": 2877,
  "Ġsurvive": 5036,
  "Ġsusp": 2898,
  "Ġsuspect": 4963,
  "Ġsustain": 7154,
  "Ġsw": 1156,
  "Ġswap": 6925,
  "Ġswe": 2455,
  "Ġswear": 5371,
  "Ġsweat": 7113,
  "Ġsweet": 3537,
  "Ġswim": 6610,
  "Ġswing": 6424,
  "Ġswit": 3999,
  "Ġswitch": 3088,
  "Ġswitched": 6992,
  "Ġswitching": 7523,
  "Ġsword": 5545,
  "Ġsy": 1035,
  "Ġsym": 6522,
  "Ġsymb": 6540,
  "Ġsymbol": 7366,
  "Ġsymp": 6894,
  "Ġsympt": 6882,
  "Ġsymptoms": 7967,
  "Ġsyn": 6798,
  "Ġsystem": 1275,
  "Ġsystems": 4507,
  "Ġt": 264,
  "Ġta": 585,
  "Ġtab": 6716,
  "Ġtable": 3223,
  "Ġtack": 7104,
  "Ġtact": 4767,
  "Ġtag": 4259,
  "Ġtail": 7062,
  "Ġtake": 772,
  "Ġtaken": 2353,
  "Ġtakes": 1908,
  "Ġtaking": 1619,
  "Ġtal": 862,
  "Ġtalent": 3696,
  "Ġtalk": 1505,
  "Ġtalked": 4201,
  "Ġtalking": 1362,
  "Ġtalks": 6253,
  "Ġtall": 5069,
  "Ġtank": 2939,
  "Ġtanks": 5415,
  "Ġtap": 5591,
  "Ġtape": 6727,
  "Ġtar": 2541,
  "Ġtarget": 2776,
  "Ġtask": 7816,
  "Ġtast": 4900,
  "Ġtaste": 3765,
  "Ġtastes": 7596,
  "Ġtattoo": 4916,
  "Ġtaught": 4983,
  "Ġtax": 1746,
  "Ġtaxes": 3659,
  "Ġtbh": 4770,
  "Ġte": 574,
  "Ġtea": 6061,
  "Ġteac": 2537,
  "Ġteach": 4685,
  "Ġteacher": 3293,
  "Ġteachers": 6371,
  "Ġteaching": 5804,
  "Ġteam": 864,
  "Ġteammates": 7440,
  "Ġteams": 2157,
  "Ġtear": 6446,
  "Ġtech": 1730,
  "Ġtechn": 2178,
  "Ġtechnical": 6753,
  "Ġtechnically": 4903,
  "Ġtechnology": 4969,
  "Ġteen": 4483,
  "Ġteeth": 5955,
  "Ġtele": 4711,
  "Ġtell": 958,
  "Ġtelling": 2507,
  "Ġtells": 4320,
  "Ġtem": 4122,
  "Ġtemp": 4265,
  "Ġtemper": 6062,
  "Ġtempor": 7812,
  "Ġten": 3554,
  "Ġtend": 2942,
  "Ġtends": 7883,
  "Ġter": 1066,
  "Ġterm": 2437,
  "Ġterms": 2837,
  "Ġterr": 5254,
  "Ġterrible": 2341,
  "Ġterror": 4554,
  "Ġtest": 1689,
  "Ġtested": 6719,
  "Ġtesting": 5338,
  "Ġtests": 6373,
  "Ġtext": 2600,
  "Ġth": 316,
  "Ġthan": 546,
  "Ġthank": 2828,
  "Ġthanks": 2234,
  "Ġthat": 319,
  "Ġthats": 2874,
  "Ġthe": 271,
  "Ġtheir": 549,
  "Ġthem": 494,
  "Ġtheme": 6332,
  "Ġthemselves": 1962,
  "Ġthen": 599,
  "Ġtheory": 3550,
  "Ġtherap": 4631,
  "Ġtherapy": 6813,
  "Ġthere": 505,
  "Ġtherefore": 5106,
  "Ġtheres": 6797,
  "Ġthese": 841,
  "Ġthey": 382,
  "Ġthick": 5934,
  "Ġthin": 5364,
  "Ġthing": 563,
  "Ġthings": 787,
  "Ġthink": 507,
  "Ġthinking": 1572,
  "Ġthinks": 3111,
  "Ġthird": 3035,
  "Ġthis": 381,
  "Ġtho": 3327,
  "Ġthor": 7925,
  "Ġthose": 776,
  "Ġthough": 760,
  "Ġthought": 948,
  "Ġthoughts": 3863,
  "Ġthous": 3373,
  "Ġthousand": 6731,
  "Ġthousands": 4374,
  "Ġthr": 767,
  "Ġthread": 1975,
  "Ġthreads": 5652,
  "Ġthreat": 2880,
  "Ġthree": 1869,
  "Ġthrew": 5780,
  "Ġthrough": 938,
  "Ġthroughout": 4936,
  "Ġthrow": 2514,
  "Ġthrowing": 4462,
  "Ġthrown": 5786,
  "Ġthumb": 6855,
  "Ġthus": 4706,
  "Ġtick": 2823,
  "Ġticket": 4319,
  "Ġtickets": 5317,
  "Ġtie": 6735,
  "Ġtied": 6725,
  "Ġtier": 3902,
  "Ġtight": 5063,
  "Ġtil": 7400,
  "Ġtill": 4277,
  "Ġtim": 510,
  "Ġtime": 552,
  "Ġtimes": 1153,
  "Ġtiming": 7807,
  "Ġtiny": 4322,
  "Ġtip": 4217,
  "Ġtips": 4951,
  "Ġtired": 3989,
  "Ġtires": 7926,
  "Ġtit": 2104,
  "Ġtitle": 2780,
  "Ġtitles": 6641,
  "Ġto": 287,
  "Ġtoday": 1752,
  "Ġtoget": 1740,
  "Ġtogether": 1741,
  "Ġtoile": 6058,
  "Ġtoilet": 6532,
  "Ġtold": 1491,
  "Ġtoler": 5715,
  "Ġtomor": 3616,
  "Ġtomorrow": 3635,
  "Ġton": 2252,
  "Ġtone": 6353,
  "Ġtonight": 4502,
  "Ġtons": 4399,
  "Ġtoo": 618,
  "Ġtook": 1543,
  "Ġtool": 3375,
  "Ġtools": 5455,
  "Ġtop": 1121,
  "Ġtopic": 4366,
  "Ġtor": 5348,
  "Ġtort": 6586,
  "Ġtoss": 6853,
  "Ġtot": 1524,
  "Ġtotal": 2958,
  "Ġtotally": 2155,
  "Ġtou": 2356,
  "Ġtouch": 3319,
  "Ġtough": 3749,
  "Ġtour": 3028,
  "Ġtournam": 4894,
  "Ġtournament": 6308,
  "Ġtow": 4020,
  "Ġtoward": 6536,
  "Ġtowards": 2567,
  "Ġtower": 6850,
  "Ġtown": 2760,
  "Ġtoxic": 5353,
  "Ġtr": 490,
  "Ġtra": 1056,
  "Ġtrack": 2699,
  "Ġtracking": 7887,
  "Ġtracks": 7602,
  "Ġtrad": 2338,
  "Ġtrade": 2049,
  "Ġtraded": 7589,
  "Ġtrading": 5390,
  "Ġtradition": 4654,
  "Ġtraditional": 6252,
  "Ġtraffic": 4269,
  "Ġtrail": 4138,
  "Ġtrailer": 6378,
  "Ġtrain": 3251,
  "Ġtrained": 6234,
  "Ġtraining": 3352,
  "Ġtrans": 1365,
  "Ġtransfer": 4444,
  "Ġtransition": 6504,
  "Ġtransl": 4785,
  "Ġtransport": 6703,
  "Ġtrap": 7166,
  "Ġtrash": 3770,
  "Ġtravel": 3180,
  "Ġtre": 2977,
  "Ġtreat": 2023,
  "Ġtreated": 4876,
  "Ġtreatment": 5130,
  "Ġtree": 4978,
  "Ġtrees": 6678,
  "Ġtrend": 5710,
  "Ġtri": 994,
  "Ġtrial": 6413,
  "Ġtrick": 4012,
  "Ġtried": 1578,
  "Ġtries": 5456,
  "Ġtrigg": 4336,
  "Ġtrigger": 5253,
  "Ġtrip": 3753,
  "Ġtro": 4555,
  "Ġtroll": 3541,
  "Ġtrouble": 3358,
  "Ġtruck": 4780,
  "Ġtrue": 1493,
  "Ġtruly": 3213,
  "Ġtrump": 5342,
  "Ġtrust": 2761,
  "Ġtruth": 3411,
  "Ġtry": 703,
  "Ġtrying": 1020,
  "Ġtun": 5506,
  "Ġtur": 2592,
  "Ġturn": 1146,
  "Ġturned": 2615,
  "Ġturning": 4593,
  "Ġturns": 3652,
  "Ġtv": 5395,
  "Ġtw": 739,
  "Ġtwe": 4347,
  "Ġtweet": 7418,
  "Ġtwice": 3218,
  "Ġtwist": 6016,
  "Ġtwitter": 7295,
  "Ġtwo": 884,
  "Ġty": 1237,
  "Ġtyp": 2158,
  "Ġtype": 1891,
  "Ġtypes": 4042,
  "Ġtypical": 5995,
  "Ġtypically": 5119,
  "Ġu": 332,
  "Ġugly": 5359,
  "Ġult": 2715,
  "Ġultimate": 7050,
  "Ġultimately": 6693,
  "Ġun": 608,
  "Ġunable": 6465,
  "Ġunc": 3942,
  "Ġuncle": 7649,
  "Ġuncom": 5432,
  "Ġuncomfortable": 5823,
  "Ġund": 3356,
  "Ġunder": 756,
  "Ġunderstand": 1059,
  "Ġunderstanding": 3761,
  "Ġunderstood": 5281,
  "Ġunf": 3924,
  "Ġunfair": 6292,
  "Ġunfortunately": 4796,
  "Ġuni": 1893,
  "Ġunion": 7689,
  "Ġunique": 4281,
  "Ġunit": 4473,
  "Ġunits": 4449,
  "Ġunivers": 5733,
  "Ġuniverse": 3971,
  "Ġuniversity": 5844,
  "Ġunless": 1924,
  "Ġunlike": 4096,
  "Ġunlikely": 5905,
  "Ġunlock": 5181,
  "Ġunnecess": 6369,
  "Ġunnecessary": 7192,
  "Ġunre": 6520,
  "Ġuns": 4315,
  "Ġunt": 1082,
  "Ġuntil": 1119,
  "Ġunw": 7163,
  "Ġup": 444,
  "Ġupd": 2220,
  "Ġupdate": 3220,
  "Ġupdated": 6570,
  "Ġupdates": 5938,
  "Ġupgr": 2902,
  "Ġupgrade": 4051,
  "Ġupload": 6686,
  "Ġupon": 3825,
  "Ġupper": 6639,
  "Ġups": 6439,
  "Ġupset": 3576,
  "Ġupvot": 4840,
  "Ġupvote": 6605,
  "Ġupvotes": 7950,
  "Ġur": 3487,
  "Ġus": 535,
  "Ġusage": 7328,
  "Ġuse": 707,
  "Ġused": 974,
  "Ġuseful": 3309,
  "Ġuseless": 4038,
  "Ġuser": 3800,
  "Ġusername": 6799,
  "Ġusers": 3822,
  "Ġuses": 3242,
  "Ġusing": 1152,
  "Ġusual": 5209,
  "Ġusually": 1521,
  "Ġut": 3360,
  "Ġutter": 6911,
  "Ġv": 480,
  "Ġvac": 3643,
  "Ġvacation": 7329,
  "Ġvacc": 7131,
  "Ġvag": 7203,
  "Ġvague": 7645,
  "Ġval": 1431,
  "Ġvalid": 4113,
  "Ġvaluable": 6302,
  "Ġvalue": 2272,
  "Ġvalues": 5791,
  "Ġvan": 4501,
  "Ġvap": 7429,
  "Ġvar": 4072,
  "Ġvari": 3357,
  "Ġvariety": 6241,
  "Ġvarious": 4661,
  "Ġvast": 5126,
  "Ġve": 1584,
  "Ġvegan": 7111,
  "Ġveget": 6180,
  "Ġveh": 3833,
  "Ġvehicle": 5229,
  "Ġvehicles": 6968,
  "Ġven": 7125,
  "Ġvend": 6846,
  "Ġvent": 7171,
  "Ġver": 3677,
  "Ġvers": 1755,
  "Ġversion": 2243,
  "Ġversions": 6658,
  "Ġvery": 712,
  "Ġvi": 1963,
  "Ġvia": 4140,
  "Ġviable": 5453,
  "Ġvib": 7969,
  "Ġvict": 3371,
  "Ġvictim": 4227,
  "Ġvide": 1340,
  "Ġvideo": 1620,
  "Ġvideos": 3335,
  "Ġview": 1876,
  "Ġviews": 4771,
  "Ġvill": 4795,
  "Ġviol": 2535,
  "Ġviolence": 4562,
  "Ġviolent": 6005,
  "Ġvir": 5179,
  "Ġvirt": 5920,
  "Ġvis": 2088,
  "Ġvision": 6479,
  "Ġvisit": 4360,
  "Ġvisual": 6890,
  "Ġvoc": 6527,
  "Ġvoice": 3303,
  "Ġvol": 2920,
  "Ġvolume": 5862,
  "Ġvot": 1995,
  "Ġvote": 2210,
  "Ġvoted": 4352,
  "Ġvoters": 6733,
  "Ġvotes": 5372,
  "Ġvoting": 4396,
  "Ġvs": 2205,
  "Ġvul": 7587,
  "Ġw": 270,
  "Ġwa": 4896,
  "Ġwage": 4738,
  "Ġwait": 1211,
  "Ġwaiting": 2555,
  "Ġwake": 5164,
  "Ġwal": 1530,
  "Ġwalk": 2502,
  "Ġwalked": 5009,
  "Ġwalking": 3568,
  "Ġwall": 2198,
  "Ġwallet": 6640,
  "Ġwalls": 6484,
  "Ġwanna": 3379,
  "Ġwant": 538,
  "Ġwanted": 1377,
  "Ġwanting": 3769,
  "Ġwants": 1790,
  "Ġwar": 1332,
  "Ġwarm": 5165,
  "Ġwarning": 5981,
  "Ġwarrant": 6318,
  "Ġwars": 6384,
  "Ġwas": 372,
  "Ġwash": 6345,
  "Ġwasn": 1235,
  "Ġwasnt": 7752,
  "Ġwast": 4369,
  "Ġwaste": 3456,
  "Ġwasted": 7066,
  "Ġwasting": 7918,
  "Ġwat": 827,
  "Ġwatch": 1484,
  "Ġwatched": 3032,
  "Ġwatching": 2139,
  "Ġwater": 1621,
  "Ġwave": 6059,
  "Ġway": 628,
  "Ġways": 2612,
  "Ġwe": 359,
  "Ġweak": 2653,
  "Ġweakness": 7876,
  "Ġwealth": 4783,
  "Ġweap": 1935,
  "Ġweapon": 3007,
  "Ġweapons": 2986,
  "Ġwear": 2069,
  "Ġwearing": 3566,
  "Ġweather": 5514,
  "Ġweb": 5263,
  "Ġwebs": 3412,
  "Ġwebsite": 3978,
  "Ġwed": 4863,
  "Ġwedding": 5888,
  "Ġwee": 943,
  "Ġweed": 3994,
  "Ġweek": 1268,
  "Ġweekend": 3253,
  "Ġweeks": 1905,
  "Ġweigh": 7772,
  "Ġweight": 2254,
  "Ġweird": 1814,
  "Ġwel": 4282,
  "Ġwelcome": 5206,
  "Ġwelf": 7670,
  "Ġwelfare": 7681,
  "Ġwell": 731,
  "Ġwent": 1225,
  "Ġwere": 637,
  "Ġweren": 2926,
  "Ġwest": 5801,
  "Ġwestern": 6752,
  "Ġwet": 5989,
  "Ġwh": 378,
  "Ġwha": 7674,
  "Ġwhat": 466,
  "Ġwhatever": 1717,
  "Ġwhats": 6667,
  "Ġwhatsoever": 7931,
  "Ġwhe": 438,
  "Ġwheel": 5337,
  "Ġwhen": 517,
  "Ġwhenever": 4027,
  "Ġwhere": 735,
  "Ġwhereas": 7145,
  "Ġwhether": 2404,
  "Ġwhich": 715,
  "Ġwhile": 882,
  "Ġwhite": 1699,
  "Ġwho": 516,
  "Ġwhoever": 6514,
  "Ġwhole": 1200,
  "Ġwhom": 7808,
  "Ġwhose": 5613,
  "Ġwhy": 720,
  "Ġwide": 4361,
  "Ġwife": 2302,
  "Ġwild": 3866,
  "Ġwill": 504,
  "Ġwilling": 2518,
  "Ġwin": 1102,
  "Ġwind": 2267,
  "Ġwindow": 4057,
  "Ġwindows": 5173,
  "Ġwine": 7492,
  "Ġwing": 4779,
  "Ġwinning": 3615,
  "Ġwins": 3864,
  "Ġwinter": 5602,
  "Ġwipe": 7711,
  "Ġwire": 5892,
  "Ġwise": 5399,
  "Ġwish": 1886,
  "Ġwit": 5161,
  "Ġwith": 358,
  "Ġwithin": 2361,
  "Ġwithout": 993,
  "Ġwitness": 6997,
  "Ġwom": 1103,
  "Ġwoman": 1988,
  "Ġwomen": 1463,
  "Ġwon": 1014,
  "Ġwond": 1441,
  "Ġwonder": 1938,
  "Ġwonderful": 5769,
  "Ġwondering": 3450,
  "Ġwont": 4304,
  "Ġwood": 4301,
  "Ġwor": 445,
  "Ġword": 1386,
  "Ġwords": 2493,
  "Ġwork": 672,
  "Ġworked": 2064,
  "Ġworker": 8003,
  "Ġworkers": 4991,
  "Ġworking": 1495,
  "Ġworks": 1587,
  "Ġworld": 1085,
  "Ġworlds": 6819,
  "Ġworried": 3816,
  "Ġworry": 2622,
  "Ġworse": 1834,
  "Ġworst": 2192,
  "Ġworth": 1337,
  "Ġwould": 422,
  "Ġwouldn": 1137,
  "Ġwouldnt": 7240,
  "Ġwow": 5133,
  "Ġwr": 819,
  "Ġwra": 7238,
  "Ġwre": 7018,
  "Ġwrest": 5933,
  "Ġwrit": 2707,
  "Ġwrite": 2953,
  "Ġwriting": 3343,
  "Ġwritten": 3742,
  "Ġwrong": 1099,
  "Ġwrote": 4275,
  "Ġwtf": 6344,
  "Ġx": 2048,
  "Ġy": 297,
  "Ġya": 4203,
  "Ġyard": 7292,
  "Ġyards": 7769,
  "Ġyea": 7098,
  "Ġyeah": 1895,
  "Ġyear": 626,
  "Ġyears": 809,
  "Ġyell": 3341,
  "Ġyellow": 5999,
  "Ġyes": 1478,
  "Ġyesterday": 3637,
  "Ġyet": 1310,
  "Ġyou": 304,
  "Ġyoung": 2320,
  "Ġyounger": 4563,
  "Ġyour": 414,
  "Ġyoure": 7007,
  "Ġyours": 4228,
  "Ġyourself": 1498,
  "Ġyout": 5533,
  "Ġyoutube": 6183,
  "Ġz": 1417,
  "Ġzero": 3613,
  "Ġzomb": 5759,
  "Ġzone": 5291,
  "Ġ|": 2585,
  "Ġ~": 2491,
  "Ġ~~": 4103,
  "ĠÂ": 5146,
  "ĠÂ£": 5843,
  "ĠÃ": 6903,
  "ĠÌ": 6732,
  "Ġâ": 5828,
  "ĠâĢ": 1392,
  "ĠâĢĺ": 6573,
  "ĠâĢľ": 1686,
  "ĠðŁ": 2288,
  "ĠðŁĺ": 3417,
  "ĠðŁĺĤ": 7885,
  "ġ": 229,
  "Ģ": 230,
  "ģ": 231,
  "Ĥ": 232,
  "ĥ": 233,
  "Ħ": 234,
  "ħ": 235,
  "Ĩ": 236,
  "ĩ": 237,
  "Ī": 238,
  "ī": 239,
  "Ĭ": 240,
  "ĭ": 241,
  "Į": 242,
  "į": 243,
  "İ": 244,
  "ı": 245,
  "Ĳ": 246,
  "ĳ": 247,
  "Ĵ": 248,
  "ĵ": 249,
  "Ķ": 250,
  "ķ": 251,
  "ĸ": 252,
  "Ĺ": 253,
  "ĺ": 254,
  "Ļ": 255,
  "ļ": 256,
  "Ľ": 257,
  "ľ": 258,
  "Ŀ": 259,
  "ŀ": 260,
  "Ł": 261,
  "ł": 262,
  "Ń": 263
}
